{
  "version": "1.0",
  "truncation": null,
  "padding": null,
  "added_tokens": [
    {
      "id": 0,
      "content": "<s>",
      "single_word": false,
      "lstrip": false,
      "rstrip": false,
      "normalized": true,
      "special": true
    },
    {
      "id": 1,
      "content": "<pad>",
      "single_word": false,
      "lstrip": false,
      "rstrip": false,
      "normalized": true,
      "special": true
    },
    {
      "id": 3,
      "content": "<unk>",
      "single_word": false,
      "lstrip": false,
      "rstrip": false,
      "normalized": true,
      "special": true
    },
    {
      "id": 4,
      "content": "<mask>",
      "single_word": false,
      "lstrip": true,
      "rstrip": false,
      "normalized": true,
      "special": true
    },
    {
      "id": 30000,
      "content": "</s>",
      "single_word": false,
      "lstrip": false,
      "rstrip": false,
      "normalized": true,
      "special": true
    }
  ],
  "normalizer": null,
  "pre_tokenizer": {
    "type": "ByteLevel",
    "add_prefix_space": false,
    "trim_offsets": true,
    "use_regex": true
  },
  "post_processor": {
    "type": "RobertaProcessing",
    "sep": [
      "</s>",
      30000
    ],
    "cls": [
      "<s>",
      0
    ],
    "trim_offsets": true,
    "add_prefix_space": false
  },
  "decoder": {
    "type": "ByteLevel",
    "add_prefix_space": true,
    "trim_offsets": true,
    "use_regex": true
  },
  "model": {
    "type": "BPE",
    "dropout": null,
    "unk_token": null,
    "continuing_subword_prefix": "",
    "end_of_word_suffix": "",
    "fuse_unk": false,
    "byte_fallback": false,
    "vocab": {
      "<s>": 0,
      "<pad>": 1,
      "<e>": 2,
      "<unk>": 3,
      "<mask>": 4,
      "!": 5,
      "\"": 6,
      "#": 7,
      "$": 8,
      "%": 9,
      "&": 10,
      "'": 11,
      "(": 12,
      ")": 13,
      "*": 14,
      "+": 15,
      ",": 16,
      "-": 17,
      ".": 18,
      "/": 19,
      "0": 20,
      "1": 21,
      "2": 22,
      "3": 23,
      "4": 24,
      "5": 25,
      "6": 26,
      "7": 27,
      "8": 28,
      "9": 29,
      ":": 30,
      ";": 31,
      "<": 32,
      "=": 33,
      ">": 34,
      "?": 35,
      "@": 36,
      "A": 37,
      "B": 38,
      "C": 39,
      "D": 40,
      "E": 41,
      "F": 42,
      "G": 43,
      "H": 44,
      "I": 45,
      "J": 46,
      "K": 47,
      "L": 48,
      "M": 49,
      "N": 50,
      "O": 51,
      "P": 52,
      "Q": 53,
      "R": 54,
      "S": 55,
      "T": 56,
      "U": 57,
      "V": 58,
      "W": 59,
      "X": 60,
      "Y": 61,
      "Z": 62,
      "[": 63,
      "\\": 64,
      "]": 65,
      "^": 66,
      "_": 67,
      "`": 68,
      "a": 69,
      "b": 70,
      "c": 71,
      "d": 72,
      "e": 73,
      "f": 74,
      "g": 75,
      "h": 76,
      "i": 77,
      "j": 78,
      "k": 79,
      "l": 80,
      "m": 81,
      "n": 82,
      "o": 83,
      "p": 84,
      "q": 85,
      "r": 86,
      "s": 87,
      "t": 88,
      "u": 89,
      "v": 90,
      "w": 91,
      "x": 92,
      "y": 93,
      "z": 94,
      "{": 95,
      "|": 96,
      "}": 97,
      "~": 98,
      "¡": 99,
      "¢": 100,
      "£": 101,
      "¤": 102,
      "¥": 103,
      "¦": 104,
      "§": 105,
      "¨": 106,
      "©": 107,
      "ª": 108,
      "«": 109,
      "¬": 110,
      "®": 111,
      "¯": 112,
      "°": 113,
      "±": 114,
      "²": 115,
      "³": 116,
      "´": 117,
      "µ": 118,
      "¶": 119,
      "·": 120,
      "¸": 121,
      "¹": 122,
      "º": 123,
      "»": 124,
      "¼": 125,
      "½": 126,
      "¾": 127,
      "¿": 128,
      "À": 129,
      "Á": 130,
      "Â": 131,
      "Ã": 132,
      "Ä": 133,
      "Å": 134,
      "Æ": 135,
      "Ç": 136,
      "È": 137,
      "É": 138,
      "Ê": 139,
      "Ë": 140,
      "Ì": 141,
      "Í": 142,
      "Î": 143,
      "Ï": 144,
      "Ð": 145,
      "Ñ": 146,
      "Ò": 147,
      "Ó": 148,
      "Ô": 149,
      "Õ": 150,
      "Ö": 151,
      "×": 152,
      "Ø": 153,
      "Ù": 154,
      "Ú": 155,
      "Û": 156,
      "Ü": 157,
      "Ý": 158,
      "Þ": 159,
      "ß": 160,
      "à": 161,
      "á": 162,
      "â": 163,
      "ã": 164,
      "ä": 165,
      "å": 166,
      "æ": 167,
      "ç": 168,
      "è": 169,
      "é": 170,
      "ê": 171,
      "ë": 172,
      "ì": 173,
      "í": 174,
      "î": 175,
      "ï": 176,
      "ð": 177,
      "ñ": 178,
      "ò": 179,
      "ó": 180,
      "ô": 181,
      "õ": 182,
      "ö": 183,
      "÷": 184,
      "ø": 185,
      "ù": 186,
      "ú": 187,
      "û": 188,
      "ü": 189,
      "ý": 190,
      "þ": 191,
      "ÿ": 192,
      "Ā": 193,
      "ā": 194,
      "Ă": 195,
      "ă": 196,
      "Ą": 197,
      "ą": 198,
      "Ć": 199,
      "ć": 200,
      "Ĉ": 201,
      "ĉ": 202,
      "Ċ": 203,
      "ċ": 204,
      "Č": 205,
      "č": 206,
      "Ď": 207,
      "ď": 208,
      "Đ": 209,
      "đ": 210,
      "Ē": 211,
      "ē": 212,
      "Ĕ": 213,
      "ĕ": 214,
      "Ė": 215,
      "ė": 216,
      "Ę": 217,
      "ę": 218,
      "Ě": 219,
      "ě": 220,
      "Ĝ": 221,
      "ĝ": 222,
      "Ğ": 223,
      "ğ": 224,
      "Ġ": 225,
      "ġ": 226,
      "Ģ": 227,
      "ģ": 228,
      "Ĥ": 229,
      "ĥ": 230,
      "Ħ": 231,
      "ħ": 232,
      "Ĩ": 233,
      "ĩ": 234,
      "Ī": 235,
      "ī": 236,
      "Ĭ": 237,
      "ĭ": 238,
      "Į": 239,
      "į": 240,
      "İ": 241,
      "ı": 242,
      "Ĳ": 243,
      "ĳ": 244,
      "Ĵ": 245,
      "ĵ": 246,
      "Ķ": 247,
      "ķ": 248,
      "ĸ": 249,
      "Ĺ": 250,
      "ĺ": 251,
      "Ļ": 252,
      "ļ": 253,
      "Ľ": 254,
      "ľ": 255,
      "Ŀ": 256,
      "ŀ": 257,
      "Ł": 258,
      "ł": 259,
      "Ń": 260,
      "čĊ": 261,
      "Ġ\\": 262,
      "ä¸": 263,
      "Ġ\\(": 264,
      "\\)": 265,
      "th": 266,
      "ï¼": 267,
      "in": 268,
      "çļ": 269,
      "çļĦ": 270,
      "ï¼Į": 271,
      "ĠčĊ": 272,
      "ãĢ": 273,
      "_{": 274,
      "Ġa": 275,
      "te": 276,
      "äº": 277,
      "ti": 278,
      "ma": 279,
      "on": 280,
      "Ġth": 281,
      "ãĢĤ": 282,
      "ra": 283,
      "åı": 284,
      "re": 285,
      "ä»": 286,
      "æľ": 287,
      "al": 288,
      "^{": 289,
      "Ġ&": 290,
      "åħ": 291,
      "Ġthe": 292,
      "le": 293,
      "ar": 294,
      "Ġs": 295,
      "en": 296,
      "å¤": 297,
      "åĪ": 298,
      "Ġo": 299,
      "è¿": 300,
      "er": 301,
      "Ġ\\(\\": 302,
      "å®": 303,
      "ta": 304,
      "åľ": 305,
      "}\\)": 306,
      "çĶ": 307,
      "ä½": 308,
      "Ġc": 309,
      "}\\": 310,
      "math": 311,
      "tex": 312,
      "æĺ": 313,
      "åĲ": 314,
      "is": 315,
      "åĬ": 316,
      "æĪ": 317,
      "ç»": 318,
      "es": 319,
      "{\\": 320,
      "or": 321,
      "Ġp": 322,
      "ãĢģ": 323,
      "Ġf": 324,
      "nd": 325,
      "Ġt": 326,
      "æĸ": 327,
      "ig": 328,
      "text": 329,
      "Ġw": 330,
      "Ġof": 331,
      "bf": 332,
      "la": 333,
      "ä¸Ģ": 334,
      "Ġd": 335,
      "è®": 336,
      "ing": 337,
      "Ġb": 338,
      "ro": 339,
      "å°": 340,
      "åĽ": 341,
      "me": 342,
      "Ġin": 343,
      "åľ¨": 344,
      "å¹": 345,
      "tion": 346,
      "ha": 347,
      "ä¼": 348,
      "æĹ": 349,
      "ä¹": 350,
      "éĩ": 351,
      "åŃ": 352,
      "æĺ¯": 353,
      "è¯": 354,
      "åº": 355,
      "Ġ-": 356,
      "rac": 357,
      "}{": 358,
      "el": 359,
      "åį": 360,
      "Ġ\\[": 361,
      "æĿ": 362,
      "}(": 363,
      "æľī": 364,
      "Ġand": 365,
      "æķ": 366,
      "ic": 367,
      "å¼": 368,
      "åĴ": 369,
      "å¯": 370,
      "ed": 371,
      "ä¸Ń": 372,
      "Ġto": 373,
      "frac": 374,
      "åĴĮ": 375,
      "éĢ": 376,
      "si": 377,
      "åĮ": 378,
      "Ġ\\]": 379,
      "å¸": 380,
      "å·": 381,
      "è¡": 382,
      "}^{": 383,
      "Ġe": 384,
      "ts": 385,
      "åĩ": 386,
      "æī": 387,
      "çĽ": 388,
      "åĨ": 389,
      "äºĨ": 390,
      "ou": 391,
      "æĢ": 392,
      "å¾": 393,
      "ä¸į": 394,
      "ĥ½": 395,
      "ft": 396,
      "ä¸º": 397,
      ",\\": 398,
      "cal": 399,
      "an": 400,
      "èĢ": 401,
      "ç§": 402,
      "è§": 403,
      "mathbf": 404,
      ")\\)": 405,
      "æł": 406,
      "(\\": 407,
      "igh": 408,
      "çİ": 409,
      "st": 410,
      "çĶ¨": 411,
      "çī": 412,
      "è´": 413,
      "ol": 414,
      "eta": 415,
      "ri": 416,
      "ä»¥": 417,
      "}}": 418,
      "=\\": 419,
      "äºº": 420,
      "hi": 421,
      "Ġn": 422,
      "å¤§": 423,
      "çº": 424,
      "ga": 425,
      "æĪĳ": 426,
      "mb": 427,
      "å±": 428,
      "ä¸ª": 429,
      "Ġre": 430,
      "su": 431,
      "æĬ": 432,
      "æŀ": 433,
      "éĹ": 434,
      "Ġm": 435,
      "Ġ=": 436,
      "ä»¬": 437,
      "ight": 438,
      "æ³": 439,
      "æµ": 440,
      "ve": 441,
      "éĻ": 442,
      "}_{": 443,
      "å½": 444,
      "he": 445,
      "at": 446,
      "it": 447,
      "èµ": 448,
      "èĥ½": 449,
      "se": 450,
      "éĿ": 451,
      "çĲ": 452,
      "è¿Ļ": 453,
      "æ°": 454,
      "å¯¹": 455,
      "æİ": 456,
      "ray": 457,
      "right": 458,
      "åı¯": 459,
      "de": 460,
      "æĶ": 461,
      "æŃ": 462,
      "ä¸ļ": 463,
      "mathcal": 464,
      "æĹ¶": 465,
      "¦ģ": 466,
      "array": 467,
      "äºİ": 468,
      "Ġis": 469,
      "çĶŁ": 470,
      "èĩ": 471,
      "Ġu": 472,
      "ĠT": 473,
      "mu": 474,
      "Ġg": 475,
      "ä¸Ĭ": 476,
      "è¦ģ": 477,
      ")\\": 478,
      "åİ": 479,
      "åıĳ": 480,
      "åĪĨ": 481,
      "ly": 482,
      "å¹´": 483,
      "ä¿": 484,
      "mp": 485,
      "_{\\": 486,
      "left": 487,
      "da": 488,
      "ho": 489,
      "è¡Į": 490,
      "çŃ": 491,
      "lo": 492,
      "å¥": 493,
      "å¿": 494,
      "ä½ľ": 495,
      "Ġ(": 496,
      "åĽ½": 497,
      "ec": 498,
      "pha": 499,
      "æĪĲ": 500,
      "do": 501,
      "é¢": 502,
      "åŃ¦": 503,
      "ce": 504,
      "è½": 505,
      "alpha": 506,
      "è¾": 507,
      "åĳ": 508,
      "æĸ¹": 509,
      "ä¼ļ": 510,
      "æĪĳä»¬": 511,
      "æĢ§": 512,
      "åĪ°": 513,
      "åĵ": 514,
      "end": 515,
      "li": 516,
      "æĭ": 517,
      "éĩı": 518,
      "Ġ0": 519,
      "ent": 520,
      "ter": 521,
      "ver": 522,
      "åĬ¨": 523,
      "æ¯": 524,
      "æĿ¥": 525,
      "Ġfor": 526,
      "\\\\": 527,
      "ine": 528,
      "qu": 529,
      "å·¥": 530,
      "Ġi": 531,
      "æķ°": 532,
      "éĺ": 533,
      "çĲĨ": 534,
      "åĩº": 535,
      "åŁ": 536,
      "Ġ1": 537,
      "åº¦": 538,
      "ç®": 539,
      "ge": 540,
      "mbda": 541,
      "be": 542,
      "æ²": 543,
      "æĮ": 544,
      ")=": 545,
      "åľ°": 546,
      "Ġwi": 547,
      "-\\": 548,
      "ĠA": 549,
      "ä¸İ": 550,
      "Ġma": 551,
      "å¤ļ": 552,
      "Ġ\\(-": 553,
      "ä½ĵ": 554,
      "åĮĸ": 555,
      "ä¾": 556,
      "Ġbe": 557,
      "to": 558,
      "è¿ĩ": 559,
      "è¿Ľ": 560,
      "å®ļ": 561,
      "åī": 562,
      "gin": 563,
      "äº§": 564,
      "^{\\": 565,
      "ĠĠ": 566,
      "tit": 567,
      "é«": 568,
      "Ġcon": 569,
      "textbf": 570,
      "ç¨": 571,
      "åŃĲ": 572,
      "é«ĺ": 573,
      "Ġpro": 574,
      "begin": 575,
      "ç½": 576,
      "çİ°": 577,
      "as": 578,
      "psi": 579,
      "ng": 580,
      "åĲĪ": 581,
      "Ġh": 582,
      "Ġ\\\\": 583,
      "Ġthat": 584,
      "ch": 585,
      "line": 586,
      "æı": 587,
      "Ġon": 588,
      "æĥ": 589,
      "textit": 590,
      "åĬĽ": 591,
      "æ¸": 592,
      "lambda": 593,
      "Ġco": 594,
      "Ġ\\)": 595,
      "phi": 596,
      "Ġy": 597,
      "})": 598,
      "ç«": 599,
      "çŃī": 600,
      "çĶµ": 601,
      "ĠS": 602,
      "mma": 603,
      "æ±": 604,
      "æ³ķ": 605,
      "ä¸ĭ": 606,
      "å®¶": 607,
      "åħ¬": 608,
      "åĲĮ": 609,
      "ur": 610,
      "ç³": 611,
      "+\\": 612,
      "æį": 613,
      "sum": 614,
      "ir": 615,
      "åĲİ": 616,
      "}=": 617,
      "æľº": 618,
      "ted": 619,
      "ĠI": 620,
      "éĹ´": 621,
      "æĸ°": 622,
      "æĦ": 623,
      "mega": 624,
      "tial": 625,
      "å®ŀ": 626,
      "éĿ¢": 627,
      "æĽ": 628,
      "ĠC": 629,
      "å¦": 630,
      "èĩª": 631,
      "æ´": 632,
      "od": 633,
      "pi": 634,
      "çľ": 635,
      "æľ¬": 636,
      "ĠW": 637,
      "Ġwith": 638,
      "ll": 639,
      "åħ¶": 640,
      "Ġan": 641,
      "elta": 642,
      "ation": 643,
      "çĽ¸": 644,
      "éĥ": 645,
      "ç³»": 646,
      "Ġv": 647,
      "é¡": 648,
      "ç©": 649,
      "tu": 650,
      "è¶": 651,
      "éĢļ": 652,
      "åħ¨": 653,
      "çĤ": 654,
      "ä¹Ł": 655,
      "æ¬": 656,
      "Ġ+": 657,
      "åĵģ": 658,
      "int": 659,
      "},": 660,
      "ç§į": 661,
      "åħ³": 662,
      "éķ": 663,
      "Ġex": 664,
      "Ġare": 665,
      "èĢĮ": 666,
      "è®¾": 667,
      "éĥ¨": 668,
      "å»": 669,
      "pp": 670,
      "ç»ı": 671,
      "Ġx": 672,
      "Ġas": 673,
      "åĪ¶": 674,
      "éģ": 675,
      "çŁ": 676,
      "è°": 677,
      "åģ": 678,
      "åºĶ": 679,
      "åĬł": 680,
      "ç¤": 681,
      "res": 682,
      "par": 683,
      "cc": 684,
      "ä¹ĭ": 685,
      "æıĲ": 686,
      "æľĢ": 687,
      "å¾Ĺ": 688,
      "å¼Ģ": 689,
      "åıĬ": 690,
      "éĩį": 691,
      "ĠM": 692,
      "éĽ": 693,
      "fty": 694,
      "çī©": 695,
      "^{-": 696,
      "å°±": 697,
      "infty": 698,
      "ä¸Ģä¸ª": 699,
      "åĢ": 700,
      "ä»ĸ": 701,
      "æīĢ": 702,
      "å¦Ĥ": 703,
      "èĤ": 704,
      "}{\\": 705,
      "ä¸»": 706,
      "å¼ı": 707,
      "åŀ": 708,
      "çł": 709,
      "è®¡": 710,
      "lon": 711,
      "igma": 712,
      "å±ķ": 713,
      "ç¬": 714,
      "us": 715,
      "ç¨ĭ": 716,
      "ĠçļĦ": 717,
      "Ġha": 718,
      "åľº": 719,
      "tic": 720,
      "æĻ": 721,
      "theta": 722,
      "åĨħ": 723,
      "å¸Ĥ": 724,
      "è¡¨": 725,
      "èģ": 726,
      "å°Ĩ": 727,
      "ï¼ļ": 728,
      "nt": 729,
      "uc": 730,
      "ç»ĵ": 731,
      "ä½¿": 732,
      "è·": 733,
      "Ġ2": 734,
      "partial": 735,
      "}(\\": 736,
      "å¹¶": 737,
      "å¢": 738,
      "ĠB": 739,
      "Ġde": 740,
      "å»º": 741,
      "åīį": 742,
      "ab": 743,
      "rm": 744,
      "di": 745,
      "xi": 746,
      "beta": 747,
      "op": 748,
      "})\\)": 749,
      "èī": 750,
      "ngle": 751,
      "ul": 752,
      "çĤ¹": 753,
      "å°ı": 754,
      "è´¨": 755,
      "åĿ": 756,
      "çī¹": 757,
      "il": 758,
      "éļ": 759,
      "æŀľ": 760,
      "ç±": 761,
      "åŀĭ": 762,
      "èĢħ": 763,
      "ç¡": 764,
      "dots": 765,
      "ĠH": 766,
      "æ¶": 767,
      "æ¯Ķ": 768,
      "bb": 769,
      "éķ¿": 770,
      "æ¨": 771,
      "Ġwe": 772,
      "ff": 773,
      "Ġsu": 774,
      "ĠP": 775,
      "[\\": 776,
      "ĠThe": 777,
      "é£": 778,
      "æŁ": 779,
      "åı¯ä»¥": 780,
      "æ°´": 781,
      "ds": 782,
      "tions": 783,
      "å¤ĸ": 784,
      "os": 785,
      "ac": 786,
      "æĺİ": 787,
      "æĹ¥": 788,
      "Ġor": 789,
      "ity": 790,
      "åĽł": 791,
      "tr": 792,
      "|\\": 793,
      "å¥½": 794,
      "äºĽ": 795,
      "éĥ½": 796,
      "å¿ĥ": 797,
      "mes": 798,
      "gamma": 799,
      "æĸĩ": 800,
      "ĠF": 801,
      "åĬ¡": 802,
      "}\\]": 803,
      "çº¿": 804,
      "ç¾": 805,
      "ĠL": 806,
      "sigma": 807,
      "åĮº": 808,
      "hline": 809,
      "mathbb": 810,
      "per": 811,
      "æ¨¡": 812,
      "ä¿Ŀ": 813,
      "ç»Ł": 814,
      "å¹³": 815,
      "pri": 816,
      "ad": 817,
      "psilon": 818,
      "id": 819,
      "ne": 820,
      ").": 821,
      "çĦ": 822,
      "æį®": 823,
      "è§£": 824,
      "ç®¡": 825,
      "çĻ": 826,
      "éĶ": 827,
      "æĪĸ": 828,
      "æĽ´": 829,
      "æģ": 830,
      "çĽ®": 831,
      "éħ": 832,
      "æľŁ": 833,
      "}^{\\": 834,
      "ä½į": 835,
      "ĠD": 836,
      "nu": 837,
      "Ġal": 838,
      "æµĭ": 839,
      "å¸¸": 840,
      "),": 841,
      "ys": 842,
      "dot": 843,
      "Ġï¼Į": 844,
      "20": 845,
      "éľ": 846,
      "çķ": 847,
      "ç²": 848,
      "ä»İ": 849,
      "çĥ": 850,
      "hat": 851,
      "prime": 852,
      "tor": 853,
      "Ġk": 854,
      "leq": 855,
      "åħ¥": 856,
      "çĿ": 857,
      "å½ĵ": 858,
      "Ġme": 859,
      "ĠG": 860,
      "èĬ": 861,
      "ĠR": 862,
      "Ġby": 863,
      ")}": 864,
      "pla": 865,
      "ers": 866,
      "åıĺ": 867,
      "æĥħ": 868,
      "ment": 869,
      "Ġyou": 870,
      "Ġ.": 871,
      "æŃ¤": 872,
      "åŁº": 873,
      "èµĦ": 874,
      "ç¼": 875,
      "ell": 876,
      "çĶ±": 877,
      "Ġsp": 878,
      "til": 879,
      "æĹł": 880,
      "åħī": 881,
      "Ġcan": 882,
      "ç´": 883,
      "ut": 884,
      "è¿ĺ": 885,
      "omega": 886,
      "ä»¶": 887,
      "æľĪ": 888,
      "ĠE": 889,
      "æĬĢ": 890,
      "ç¬¬": 891,
      "era": 892,
      "var": 893,
      "ä¿¡": 894,
      "}^": 895,
      "å½¢": 896,
      "äºĭ": 897,
      "åı¸": 898,
      "ä»£": 899,
      "Ġmo": 900,
      "Ġl": 901,
      "delta": 902,
      "ç½ĳ": 903,
      "times": 904,
      "æľ¯": 905,
      "åĪ©": 906,
      "ç»Ħ": 907,
      "çĦ¶": 908,
      "æİ¥": 909,
      "æłĩ": 910,
      "are": 911,
      "ss": 912,
      "å§": 913,
      "tilde": 914,
      "ow": 915,
      "èĲ": 916,
      "å¤©": 917,
      "tem": 918,
      "åĳĺ": 919,
      "rho": 920,
      "et": 921,
      "}}\\": 922,
      "éĵ": 923,
      "tau": 924,
      "ç¤º": 925,
      "è¯´": 926,
      "åįķ": 927,
      "ä¸ī": 928,
      "æĦı": 929,
      "åĻ": 930,
      "Ġ,": 931,
      "ot": 932,
      "Ġdi": 933,
      "dis": 934,
      "æ¡": 935,
      "éģĵ": 936,
      "Ġwh": 937,
      "rom": 938,
      "tri": 939,
      "æŃ£": 940,
      "ble": 941,
      "yle": 942,
      "éĩĳ": 943,
      "æµģ": 944,
      "ä½Ĩ": 945,
      "big": 946,
      "çłĶ": 947,
      "å®ī": 948,
      "Ġr": 949,
      "om": 950,
      "ĠWe": 951,
      "çĸ": 952,
      "ä¸¤": 953,
      "è¢": 954,
      "æ¬¡": 955,
      "æº": 956,
      "}.": 957,
      "Ġ\\({\\": 958,
      "åħ·": 959,
      "å¾Ī": 960,
      "åħ¬åı¸": 961,
      "over": 962,
      "ï¼Ľ": 963,
      "ess": 964,
      "è¿Ľè¡Į": 965,
      "Ġat": 966,
      "yst": 967,
      "è£": 968,
      "Ġdis": 969,
      "Ġen": 970,
      "ĠN": 971,
      "æķĻ": 972,
      "ĠãĢĤ": 973,
      "rt": 974,
      "æ·": 975,
      "00": 976,
      "},\\": 977,
      ")=\\": 978,
      "_\\": 979,
      "}=\\": 980,
      "ç±»": 981,
      "ical": 982,
      "åĻ¨": 983,
      "çĿĢ": 984,
      "éĴ": 985,
      "é¢ĺ": 986,
      "\\[\\": 987,
      "è®º": 988,
      "å¯¼": 989,
      "ä¼ģ": 990,
      "rangle": 991,
      "éľĢ": 992,
      "æķĪ": 993,
      "éª": 994,
      "å¼º": 995,
      "Ġle": 996,
      "èµ·": 997,
      "displa": 998,
      "Ġne": 999,
      "}+": 1000,
      "éĩĮ": 1001,
      "ystyle": 1002,
      "displaystyle": 1003,
      "ni": 1004,
      "ç§ĳ": 1005,
      "åĲĳ": 1006,
      "è§Ħ": 1007,
      "åĲį": 1008,
      "Ġfrom": 1009,
      "èĥ": 1010,
      "åħĥ": 1011,
      "èĭ": 1012,
      "æ´»": 1013,
      "sq": 1014,
      "åķ": 1015,
      "éĤ": 1016,
      "çĹ": 1017,
      "è¿Ĳ": 1018,
      "ç©º": 1019,
      "ä½¿çĶ¨": 1020,
      "æ°Ķ": 1021,
      "æŀĦ": 1022,
      "Ġcomp": 1023,
      "sion": 1024,
      "è½¦": 1025,
      "è¯ģ": 1026,
      "è¢«": 1027,
      "lim": 1028,
      "å·¥ä½ľ": 1029,
      "éĿŀ": 1030,
      "èĪ": 1031,
      "æľį": 1032,
      "ç¦": 1033,
      "ther": 1034,
      "åĲĦ": 1035,
      "é¦": 1036,
      "ç¡®": 1037,
      "cdot": 1038,
      "sqrt": 1039,
      "bar": 1040,
      "ç¾İ": 1041,
      "é¡¹": 1042,
      "éĹ®": 1043,
      "äºĮ": 1044,
      "ich": 1045,
      "ld": 1046,
      "åİŁ": 1047,
      "ä¼ģä¸ļ": 1048,
      "æł·": 1049,
      "çĲĥ": 1050,
      "æĢģ": 1051,
      "\\,": 1052,
      "ide": 1053,
      "Ġthis": 1054,
      "Omega": 1055,
      "æł¼": 1056,
      "ran": 1057,
      "red": 1058,
      "ä¾Ľ": 1059,
      "ä¸ĵ": 1060,
      "tive": 1061,
      "äº¤": 1062,
      "ä»»": 1063,
      "éĢł": 1064,
      "Ġte": 1065,
      "å¤Ħ": 1066,
      "å£": 1067,
      "çİ¯": 1068,
      "éĻĲ": 1069,
      "éĽĨ": 1070,
      "èį": 1071,
      "Ġlo": 1072,
      "çģ": 1073,
      "varphi": 1074,
      "çİĩ": 1075,
      "è°ĥ": 1076,
      "mathrm": 1077,
      "èİ": 1078,
      "æ±Ĥ": 1079,
      "rou": 1080,
      "æĺŁ": 1081,
      "Ġit": 1082,
      "ci": 1083,
      "æ®": 1084,
      "Ġse": 1085,
      "æĮģ": 1086,
      "åĢ¼": 1087,
      "ç³»ç»Ł": 1088,
      "èģĶ": 1089,
      "Delta": 1090,
      "é£İ": 1091,
      "Ġso": 1092,
      "è½¬": 1093,
      "ke": 1094,
      "æºĲ": 1095,
      "æĤ": 1096,
      "ents": 1097,
      "12": 1098,
      "ting": 1099,
      "ä¼ł": 1100,
      "æ»": 1101,
      "Ġ\\((": 1102,
      "åıĳå±ķ": 1103,
      "for": 1104,
      "åķĨ": 1105,
      "çĬ": 1106,
      "ĠV": 1107,
      "na": 1108,
      "ç«ĭ": 1109,
      "ĠU": 1110,
      "å·²": 1111,
      "lu": 1112,
      "10": 1113,
      "é©": 1114,
      "æĸĻ": 1115,
      "Ġpa": 1116,
      "ç©¶": 1117,
      "ç®Ĺ": 1118,
      "çº§": 1119,
      "è¿ĳ": 1120,
      "so": 1121,
      "éĢļè¿ĩ": 1122,
      "è§Ĥ": 1123,
      "}-": 1124,
      "æīĭ": 1125,
      "ä½ł": 1126,
      "èĦ": 1127,
      "çľĭ": 1128,
      "åĮħ": 1129,
      "èī²": 1130,
      "åĩĨ": 1131,
      "å®ĥ": 1132,
      "iz": 1133,
      "å¤ĩ": 1134,
      "å¢ŀ": 1135,
      "æĶ¿": 1136,
      "éĢī": 1137,
      "og": 1138,
      "åĪ«": 1139,
      ".\\)": 1140,
      "æĬĢæľ¯": 1141,
      "å¸ĥ": 1142,
      "epsilon": 1143,
      "è¯¥": 1144,
      "ĠX": 1145,
      "åĪĽ": 1146,
      "how": 1147,
      "åıĤ": 1148,
      "åıĹ": 1149,
      "ç¥": 1150,
      "è£ħ": 1151,
      "æ£": 1152,
      "nc": 1153,
      "Ġsta": 1154,
      "å½±": 1155,
      "è¾ĥ": 1156,
      "ms": 1157,
      "åĨ³": 1158,
      "ä¹Ī": 1159,
      "æĦŁ": 1160,
      "çĪ": 1161,
      "}_": 1162,
      "Ġz": 1163,
      "èĢĥ": 1164,
      "æ²¡": 1165,
      "æĸ¯": 1166,
      "çĥŃ": 1167,
      "è¥": 1168,
      "çŁ¥": 1169,
      "æĺ¾": 1170,
      "è¾¾": 1171,
      "ldots": 1172,
      "è¥¿": 1173,
      "ä½İ": 1174,
      "æĬ¥": 1175,
      "éĢŁ": 1176,
      "çłĶç©¶": 1177,
      "éĹ¨": 1178,
      "æ°ĳ": 1179,
      "æĶ¶": 1180,
      "Ġus": 1181,
      "éªĮ": 1182,
      "å®Į": 1183,
      "è·¯": 1184,
      "æĿ¡": 1185,
      "iv": 1186,
      "ral": 1187,
      "min": 1188,
      "æĶ¾": 1189,
      "è¶ħ": 1190,
      "èĮ": 1191,
      "åĸ": 1192,
      "éĻ¢": 1193,
      "çĽ´": 1194,
      "åıĸ": 1195,
      "æķ´": 1196,
      "Ga": 1197,
      "èĻ": 1198,
      "Ġwhich": 1199,
      "èĩ³": 1200,
      "ä»·": 1201,
      "äº§åĵģ": 1202,
      "Ġ3": 1203,
      "æĪ·": 1204,
      "æĢ»": 1205,
      "åģļ": 1206,
      "Ġj": 1207,
      "åħ±": 1208,
      "ï¼ī": 1209,
      "ous": 1210,
      "æĹ¶éĹ´": 1211,
      "ç»´": 1212,
      "ten": 1213,
      "æľįåĬ¡": 1214,
      "èº": 1215,
      "Ġhe": 1216,
      "Ġhave": 1217,
      "ĠO": 1218,
      "vel": 1219,
      ")^{": 1220,
      "ä¸ŃåĽ½": 1221,
      "ï¼Ī": 1222,
      "duc": 1223,
      "çĬ¶": 1224,
      "åħĪ": 1225,
      "Ġla": 1226,
      "æĮĩ": 1227,
      "çķĮ": 1228,
      "Ġqu": 1229,
      "å°ĳ": 1230,
      "åĬŁ": 1231,
      "tes": 1232,
      "log": 1233,
      "ç§°": 1234,
      "å¹¿": 1235,
      "Ġra": 1236,
      "æµ·": 1237,
      "éĹ®é¢ĺ": 1238,
      "ĠTh": 1239,
      "åĽ¾": 1240,
      "\\|": 1241,
      "Gamma": 1242,
      "æ¯ı": 1243,
      "les": 1244,
      "åıª": 1245,
      "ty": 1246,
      "èº«": 1247,
      "ĠIn": 1248,
      "ä½ķ": 1249,
      "ä¼ĺ": 1250,
      "åİ»": 1251,
      "nab": 1252,
      "row": 1253,
      "lec": 1254,
      "è¿ĻäºĽ": 1255,
      "ĠK": 1256,
      "Ġapp": 1257,
      "æĥ³": 1258,
      "Ġmod": 1259,
      "èµĽ": 1260,
      "å¸¦": 1261,
      "um": 1262,
      "ck": 1263,
      "ex": 1264,
      "æİ¨": 1265,
      "åıį": 1266,
      "Ġca": 1267,
      "chi": 1268,
      "èĬĤ": 1269,
      "ç¦»": 1270,
      "æŁ¥": 1271,
      "å¼ķ": 1272,
      "å®¹": 1273,
      "Ġli": 1274,
      "åŃĺ": 1275,
      "æģ¯": 1276,
      ")^": 1277,
      "éĤ£": 1278,
      "ä¸ĸ": 1279,
      "è®©": 1280,
      "åı°": 1281,
      "our": 1282,
      "nabla": 1283,
      "è®¤": 1284,
      "æ¸©": 1285,
      "æŀģ": 1286,
      "å¤į": 1287,
      "bol": 1288,
      "åįģ": 1289,
      "Ġ4": 1290,
      "éĺŁ": 1291,
      "åı£": 1292,
      "å°Ķ": 1293,
      "æĶ¹": 1294,
      "11": 1295,
      "ç²¾": 1296,
      "è´¹": 1297,
      "åĨµ": 1298,
      "set": 1299,
      "low": 1300,
      "ç®¡çĲĨ": 1301,
      "}{|": 1302,
      "é¢Ĩ": 1303,
      "æıĲä¾Ľ": 1304,
      "æ¼": 1305,
      "èĩ´": 1306,
      "vi": 1307,
      "æ³¨": 1308,
      "Ġob": 1309,
      "ç»Ļ": 1310,
      "ymb": 1311,
      "^{(": 1312,
      "éĺ²": 1313,
      "æł¡": 1314,
      "Ġimp": 1315,
      "ymbol": 1316,
      "ä¸ĩ": 1317,
      "é»": 1318,
      "ere": 1319,
      "åĮ»": 1320,
      "ence": 1321,
      "^\\": 1322,
      "æķ°æį®": 1323,
      "Ġ\\,": 1324,
      "åı¯èĥ½": 1325,
      "èĲ¥": 1326,
      "Ġst": 1327,
      "gh": 1328,
      "Ġpo": 1329,
      "|}": 1330,
      "åŃĹ": 1331,
      "item": 1332,
      "æ¶Ī": 1333,
      "Ġab": 1334,
      "æ²»": 1335,
      "33": 1336,
      "æ¡Ī": 1337,
      "ture": 1338,
      "wide": 1339,
      "æĸ½": 1340,
      "ons": 1341,
      "ç£": 1342,
      "çĻ½": 1343,
      "èİ·": 1344,
      "çĹħ": 1345,
      "Ġsa": 1346,
      "sin": 1347,
      "æł¹": 1348,
      "éħį": 1349,
      "ĠJ": 1350,
      "Ġinc": 1351,
      "dsymbol": 1352,
      "åŁŁ": 1353,
      "boldsymbol": 1354,
      "åĽŀ": 1355,
      "Ġpla": 1356,
      "ties": 1357,
      "ç¤¾": 1358,
      "å·±": 1359,
      "è¯ķ": 1360,
      "æĬķ": 1361,
      "æ²¡æľī": 1362,
      "æŃ¥": 1363,
      "ä¸ľ": 1364,
      "sp": 1365,
      "ç»Ń": 1366,
      "and": 1367,
      "å¸Ī": 1368,
      "èĤ²": 1369,
      "the": 1370,
      "åĪĻ": 1371,
      "åİĭ": 1372,
      "è®®": 1373,
      "tan": 1374,
      "æİ§": 1375,
      "Ġnot": 1376,
      "æ®µ": 1377,
      "trix": 1378,
      "ect": 1379,
      "ork": 1380,
      "ign": 1381,
      "Ġda": 1382,
      "åĽ¢": 1383,
      "æĶ¯": 1384,
      "Ġtheir": 1385,
      "ç½®": 1386,
      "geq": 1387,
      "Phi": 1388,
      "çº¦": 1389,
      "æĿĲ": 1390,
      "è§Ĩ": 1391,
      "åŁİ": 1392,
      "è±": 1393,
      "åį³": 1394,
      "ore": 1395,
      "æ¸¸": 1396,
      "å®¢": 1397,
      "cu": 1398,
      "Ġfu": 1399,
      "å²": 1400,
      "åįĹ": 1401,
      "æĺĵ": 1402,
      "éľĢè¦ģ": 1403,
      "Ġpar": 1404,
      "}}{": 1405,
      "æĸ¹æ³ķ": 1406,
      "å¯Ĩ": 1407,
      "èĩªå·±": 1408,
      "æİĴ": 1409,
      "19": 1410,
      "éĻħ": 1411,
      "é¢Ħ": 1412,
      "åĵį": 1413,
      "cos": 1414,
      "ä¾ĭ": 1415,
      "The": 1416,
      "ves": 1417,
      "ations": 1418,
      "ç§¯": 1419,
      "ä¸įåĲĮ": 1420,
      "æ³¢": 1421,
      "éĩĩ": 1422,
      "å±Ĥ": 1423,
      "Ġfi": 1424,
      "éŁ": 1425,
      "ding": 1426,
      "tain": 1427,
      "åĽĽ": 1428,
      "æīĵ": 1429,
      "åĮĹ": 1430,
      "åĶ": 1431,
      "å¸Ĥåľº": 1432,
      "ach": 1433,
      "å¢ĥ": 1434,
      "Ġalso": 1435,
      "16": 1436,
      "ca": 1437,
      "å¦Ĥæŀľ": 1438,
      "åĪĹ": 1439,
      "Ġyour": 1440,
      "åĬŀ": 1441,
      "çħ": 1442,
      "ï¼Ł": 1443,
      "è®°": 1444,
      "æ¢": 1445,
      "åĩł": 1446,
      "å¾®": 1447,
      "ç´ł": 1448,
      "pro": 1449,
      "ä¸ŃçļĦ": 1450,
      "æĪĺ": 1451,
      "Ġ5": 1452,
      "ari": 1453,
      "æĥħåĨµ": 1454,
      "å¡": 1455,
      "éļı": 1456,
      "Ġ\\(|": 1457,
      "app": 1458,
      "åı·": 1459,
      "ä¹ī": 1460,
      "ä»¥åıĬ": 1461,
      "}_{\\": 1462,
      "rea": 1463,
      "åĬ©": 1464,
      "ä¸Ķ": 1465,
      "der": 1466,
      "éĢĤ": 1467,
      "æ¨¡åŀĭ": 1468,
      "Ġper": 1469,
      "matrix": 1470,
      "è¿ŀ": 1471,
      "è´¨éĩı": 1472,
      "ç»ĵæŀľ": 1473,
      "quad": 1474,
      "arepsilon": 1475,
      "å¿«": 1476,
      "ä¸»è¦ģ": 1477,
      "varepsilon": 1478,
      "15": 1479,
      "Ġwa": 1480,
      "çĶŁäº§": 1481,
      "è®¾è®¡": 1482,
      "çľģ": 1483,
      "Ġwas": 1484,
      "ä¹¦": 1485,
      "ust": 1486,
      "æ·±": 1487,
      "æĬ¤": 1488,
      "åħ·æľī": 1489,
      "å±±": 1490,
      "Big": 1491,
      "out": 1492,
      "erg": 1493,
      "å§ĭ": 1494,
      "å¾·": 1495,
      "tical": 1496,
      "\\{": 1497,
      "Ġad": 1498,
      "Ġstu": 1499,
      "çľŁ": 1500,
      "è¶³": 1501,
      "å°Ħ": 1502,
      "ä¸Ģç§į": 1503,
      "fic": 1504,
      "^*": 1505,
      "è¿Ļä¸ª": 1506,
      "}+\\": 1507,
      ":=": 1508,
      "))": 1509,
      "æĿĥ": 1510,
      "åĨį": 1511,
      "Ġev": 1512,
      "æ¸ħ": 1513,
      "}|": 1514,
      "ary": 1515,
      "æ£Ģ": 1516,
      "ound": 1517,
      "Ġ{": 1518,
      "Ġhas": 1519,
      "åįĩ": 1520,
      "æīį": 1521,
      "åħĭ": 1522,
      "æł¸": 1523,
      "Ġsi": 1524,
      "Ġ6": 1525,
      "13": 1526,
      "æŀĲ": 1527,
      "æľª": 1528,
      "é¥": 1529,
      "pe": 1530,
      "æĴ": 1531,
      "ä»Ĭ": 1532,
      "ular": 1533,
      "éĻ¤": 1534,
      "Ġac": 1535,
      "å¤´": 1536,
      "é¦ĸ": 1537,
      "åĳ¨": 1538,
      "18": 1539,
      "lic": 1540,
      "star": 1541,
      "ies": 1542,
      "La": 1543,
      "}\\\\": 1544,
      "çĭ": 1545,
      "åĳĬ": 1546,
      "äºĴ": 1547,
      "sul": 1548,
      "Ġti": 1549,
      "èĮĥ": 1550,
      "overline": 1551,
      "èĢģ": 1552,
      "14": 1553,
      "erv": 1554,
      "Ġcha": 1555,
      "ace": 1556,
      "æĸŃ": 1557,
      "Ġmodel": 1558,
      "25": 1559,
      "å¯¹äºİ": 1560,
      "æĭī": 1561,
      "ystem": 1562,
      "ç«Ļ": 1563,
      "Ġexp": 1564,
      "})\\": 1565,
      "é©¬": 1566,
      "ree": 1567,
      "we": 1568,
      "äºļ": 1569,
      ",\\)": 1570,
      "å±ŀ": 1571,
      "å±Ģ": 1572,
      "Ġshow": 1573,
      "langle": 1574,
      "mal": 1575,
      "ould": 1576,
      "å¿ħ": 1577,
      ";\\": 1578,
      "sf": 1579,
      "ä¿¡æģ¯": 1580,
      "é¡¹çĽ®": 1581,
      "ph": 1582,
      "å½±åĵį": 1583,
      "Ġdo": 1584,
      "ĠãĢģ": 1585,
      ")(": 1586,
      "è®¸": 1587,
      "çĽ¸åħ³": 1588,
      "exp": 1589,
      "ç¢": 1590,
      "Ġop": 1591,
      "Ġdiff": 1592,
      "Ġeff": 1593,
      "ç±³": 1594,
      "Ġ{\\": 1595,
      "æĿ¿": 1596,
      "ard": 1597,
      "Ġpres": 1598,
      "17": 1599,
      "ĠY": 1600,
      "è¶Ĭ": 1601,
      "åıĳçİ°": 1602,
      "ally": 1603,
      "å°±æĺ¯": 1604,
      "åºı": 1605,
      "åĽ½å®¶": 1606,
      "è§ģ": 1607,
      "Ġfin": 1608,
      "é£Ł": 1609,
      "Ġgen": 1610,
      "rate": 1611,
      "Ġ8": 1612,
      "Ġ7": 1613,
      "ç»Ĩ": 1614,
      "ant": 1615,
      "æĭ¬": 1616,
      "col": 1617,
      "olu": 1618,
      "pm": 1619,
      "éĥ¨åĪĨ": 1620,
      "}\\,": 1621,
      "ij": 1622,
      "Ġresul": 1623,
      "åĪĨæŀĲ": 1624,
      "ry": 1625,
      "dy": 1626,
      "å¼Ĥ": 1627,
      "æĳ": 1628,
      "Ġmore": 1629,
      "è¯Ĩ": 1630,
      "ln": 1631,
      "è§Ĵ": 1632,
      "ç©ºéĹ´": 1633,
      ")+": 1634,
      "Ġ|": 1635,
      "irc": 1636,
      "ç®Ģ": 1637,
      "Ġtw": 1638,
      "è¯Ń": 1639,
      "Ġits": 1640,
      "è¯·": 1641,
      "æĬĬ": 1642,
      "ĠThis": 1643,
      "Lambda": 1644,
      "Ġstr": 1645,
      "22": 1646,
      "ps": 1647,
      "å·ŀ": 1648,
      "éĩįè¦ģ": 1649,
      "ç»ĵæŀĦ": 1650,
      "ï¼ģ": 1651,
      "am": 1652,
      "fra": 1653,
      "led": 1654,
      "ä¹Ĳ": 1655,
      "å®īåħ¨": 1656,
      "ä½ľä¸º": 1657,
      "here": 1658,
      "sub": 1659,
      "åĽ´": 1660,
      "çīĩ": 1661,
      "æĸ¹éĿ¢": 1662,
      "å¤Ł": 1663,
      "æļ": 1664,
      "ç£ģ": 1665,
      "åĪĴ": 1666,
      "è®¡ç®Ĺ": 1667,
      "æĺ¾ç¤º": 1668,
      "çĸĹ": 1669,
      "ate": 1670,
      "Ġinte": 1671,
      "its": 1672,
      "èħ": 1673,
      "Ġsystem": 1674,
      "ãĢĭ": 1675,
      "ox": 1676,
      "Ġpre": 1677,
      "èŀ": 1678,
      "Ġtran": 1679,
      "con": 1680,
      "ue": 1681,
      "ãĢĬ": 1682,
      "ear": 1683,
      "Ġ9": 1684,
      "man": 1685,
      "ç¥ŀ": 1686,
      "olog": 1687,
      "è±¡": 1688,
      "åįı": 1689,
      "Ġåľ¨": 1690,
      "mo": 1691,
      "æĻ¯": 1692,
      "Ġq": 1693,
      "è®¾å¤ĩ": 1694,
      "ä¾¿": 1695,
      "åĲĮæĹ¶": 1696,
      "Ġwill": 1697,
      "Ġ(\\": 1698,
      "åĩı": 1699,
      "Ġbet": 1700,
      ")}\\": 1701,
      "çª": 1702,
      "æ¹": 1703,
      "å¹²": 1704,
      "lation": 1705,
      "ast": 1706,
      "çĲĨè®º": 1707,
      "Ġar": 1708,
      "è¿Ļç§į": 1709,
      "éĶĢ": 1710,
      "åıĮ": 1711,
      "æµİ": 1712,
      "Ġthey": 1713,
      "åĥ": 1714,
      "åĬ¿": 1715,
      "å·®": 1716,
      "ases": 1717,
      "åºĶçĶ¨": 1718,
      "åĽłä¸º": 1719,
      "erator": 1720,
      "}^{(": 1721,
      "æĵ": 1722,
      "è¡Įä¸ļ": 1723,
      "}}\\)": 1724,
      "è¿ĩç¨ĭ": 1725,
      "çİ¯å¢ĥ": 1726,
      "ä»ĸä»¬": 1727,
      "èģĮ": 1728,
      "30": 1729,
      "è¾¹": 1730,
      "Ġhigh": 1731,
      ")-": 1732,
      "Ġthese": 1733,
      "mon": 1734,
      "ä¾Ŀ": 1735,
      "co": 1736,
      "åĿĩ": 1737,
      "Ġone": 1738,
      "Ġta": 1739,
      "éŁ³": 1740,
      "æł¹æį®": 1741,
      "æ²¹": 1742,
      "åįİ": 1743,
      "67": 1744,
      "Ġno": 1745,
      "cdots": 1746,
      "æ»¡": 1747,
      "é¢ĳ": 1748,
      "bu": 1749,
      "ä¹ł": 1750,
      "ments": 1751,
      "éĻį": 1752,
      "æĻº": 1753,
      "ĠQ": 1754,
      "èĬ±": 1755,
      "åħ»": 1756,
      "24": 1757,
      "]\\)": 1758,
      "circ": 1759,
      "åĮħæĭ¬": 1760,
      "ges": 1761,
      "ç¾¤": 1762,
      "æĪ¿": 1763,
      "è´£": 1764,
      "ä¸ĢäºĽ": 1765,
      "çĪ±": 1766,
      "è¦ģæ±Ĥ": 1767,
      "arrow": 1768,
      "éļ¾": 1769,
      "Ġdes": 1770,
      "Ġall": 1771,
      "ä»ħ": 1772,
      "åįĬ": 1773,
      "çħ§": 1774,
      "king": 1775,
      "ility": 1776,
      "æĭ©": 1777,
      "å¤ª": 1778,
      "æ¼Ķ": 1779,
      "çīĮ": 1780,
      "tation": 1781,
      "åħ¶ä»ĸ": 1782,
      "æį¢": 1783,
      "æłĩåĩĨ": 1784,
      "æĲ": 1785,
      "otimes": 1786,
      "äºĶ": 1787,
      "åĪĩ": 1788,
      "èīº": 1789,
      "ä¹ĭéĹ´": 1790,
      "Ġsome": 1791,
      "å»ºè®¾": 1792,
      "è¾ĵ": 1793,
      "è¯Ħ": 1794,
      "gra": 1795,
      "ion": 1796,
      "ä¿®": 1797,
      "ä¸ĵä¸ļ": 1798,
      "ä¼Ĺ": 1799,
      "men": 1800,
      "nder": 1801,
      "^{*": 1802,
      "æ´»åĬ¨": 1803,
      "åĥı": 1804,
      "è§£åĨ³": 1805,
      "çĮ": 1806,
      "po": 1807,
      "åħħ": 1808,
      "æĻ®": 1809,
      "ä½ľçĶ¨": 1810,
      "çŁ³": 1811,
      "Ġsh": 1812,
      "ks": 1813,
      "æ¦": 1814,
      "\\]": 1815,
      "çı": 1816,
      "å¥³": 1817,
      "è¿°": 1818,
      "æīĢæľī": 1819,
      "æĪĲä¸º": 1820,
      "ger": 1821,
      "åĬŁèĥ½": 1822,
      "è¯Ŀ": 1823,
      "ew": 1824,
      "éĢīæĭ©": 1825,
      "ä»Ģ": 1826,
      "ort": 1827,
      "Ġtime": 1828,
      "æħ": 1829,
      "èı": 1830,
      "è´Ł": 1831,
      "}-\\": 1832,
      "zeta": 1833,
      "appa": 1834,
      "äº§çĶŁ": 1835,
      "æľĽ": 1836,
      "Ġcom": 1837,
      "çº¢": 1838,
      "23": 1839,
      "ç¨³": 1840,
      "mation": 1841,
      "ä¸Ńå¿ĥ": 1842,
      "Ġtwo": 1843,
      "Ġro": 1844,
      "ces": 1845,
      "å§Ķ": 1846,
      "å¤ĦçĲĨ": 1847,
      "éĿŀå¸¸": 1848,
      "Ġsc": 1849,
      "frak": 1850,
      "kappa": 1851,
      "åıĪ": 1852,
      "atu": 1853,
      "èİ·å¾Ĺ": 1854,
      "ç»ıæµİ": 1855,
      "ish": 1856,
      "åĽłæŃ¤": 1857,
      "\\[": 1858,
      "åĢĻ": 1859,
      "Ġour": 1860,
      "ĠæĪĳä»¬": 1861,
      "sta": 1862,
      "Ġga": 1863,
      "å·¥ç¨ĭ": 1864,
      "Ġ)": 1865,
      "åĲ«": 1866,
      "æķĻèĤ²": 1867,
      "eld": 1868,
      "çĶŁæ´»": 1869,
      "æĸ¹å¼ı": 1870,
      "æķ£": 1871,
      "vec": 1872,
      "Ġout": 1873,
      "mple": 1874,
      "åĭ": 1875,
      "21": 1876,
      "Ġsuch": 1877,
      ",\\,": 1878,
      "çĶ¨äºİ": 1879,
      "çĽĳ": 1880,
      "èĭ±": 1881,
      "èĳ": 1882,
      "åİĨ": 1883,
      "Ġreg": 1884,
      "mathfrak": 1885,
      "èĪ¬": 1886,
      "å¼ł": 1887,
      ")}{": 1888,
      "50": 1889,
      "åĨľ": 1890,
      "mic": 1891,
      "als": 1892,
      "å¤±": 1893,
      "å¤§çļĦ": 1894,
      "Ġacc": 1895,
      "Ġcol": 1896,
      "Ġ\\(\\{": 1897,
      "str": 1898,
      "ç»ľ": 1899,
      "ä¸ĸçķĮ": 1900,
      "tro": 1901,
      "..": 1902,
      "åģ¥": 1903,
      "ä¼¼": 1904,
      "å·²ç»ı": 1905,
      "æĮī": 1906,
      "å£«": 1907,
      "å®¤": 1908,
      "èĤ¡": 1909,
      "åĳ½": 1910,
      "ween": 1911,
      "ç¤¾ä¼ļ": 1912,
      "Ġother": 1913,
      "Ġbut": 1914,
      "Ġdiffere": 1915,
      "Ġho": 1916,
      "æī¿": 1917,
      "one": 1918,
      "ĠåĴĮ": 1919,
      "now": 1920,
      "ters": 1921,
      "ased": 1922,
      "Ġcor": 1923,
      "neq": 1924,
      "&{": 1925,
      "Ġgenera": 1926,
      "æµĭéĩı": 1927,
      "æ²³": 1928,
      "åŃĺåľ¨": 1929,
      "Ġprov": 1930,
      "ome": 1931,
      "æľīéĻĲ": 1932,
      "ä»Ģä¹Ī": 1933,
      "ä»ĭ": 1934,
      "äººåĳĺ": 1935,
      "ĠZ": 1936,
      "Ġequ": 1937,
      "ç¬¬ä¸Ģ": 1938,
      "serv": 1939,
      "ä¸¤ä¸ª": 1940,
      "tric": 1941,
      "rec": 1942,
      "éĻ©": 1943,
      "è¨": 1944,
      "è¨Ģ": 1945,
      "èį¯": 1946,
      "åĩºçİ°": 1947,
      "ç»ĩ": 1948,
      "mathsf": 1949,
      "Ġbo": 1950,
      "çĬ¶æĢģ": 1951,
      "æ¬¾": 1952,
      "èĥ½åĬĽ": 1953,
      "Ġthan": 1954,
      "Ġmay": 1955,
      "åĪĿ": 1956,
      "ns": 1957,
      "çĶ±äºİ": 1958,
      "æĿĲæĸĻ": 1959,
      "27": 1960,
      "28": 1961,
      "å¥½çļĦ": 1962,
      "Ġdata": 1963,
      "sure": 1964,
      "èŀį": 1965,
      "Th": 1966,
      "very": 1967,
      "fi": 1968,
      "å¾Ģ": 1969,
      "Ġgra": 1970,
      "èĥ½å¤Ł": 1971,
      "çº³": 1972,
      "è¿ľ": 1973,
      "60": 1974,
      "å®ŀçİ°": 1975,
      "Ġnew": 1976,
      "ood": 1977,
      "Ġbetween": 1978,
      "åº·": 1979,
      "ä¸¥": 1980,
      "åŃ¦çĶŁ": 1981,
      "ith": 1982,
      "dx": 1983,
      "40": 1984,
      "name": 1985,
      "æī©": 1986,
      "åĽŃ": 1987,
      "Psi": 1988,
      "Ġrec": 1989,
      "çĶµåŃĲ": 1990,
      "ç§»": 1991,
      "ç½ĳç»ľ": 1992,
      "éĺ³": 1993,
      "åĶ®": 1994,
      "åĦ": 1995,
      "ä»½": 1996,
      "ay": 1997,
      "çŃĸ": 1998,
      "éħĴ": 1999,
      "ä¸ĢèĪ¬": 2000,
      "åľŁ": 2001,
      "åħ¶ä¸Ń": 2002,
      "Ġspec": 2003,
      "&\\": 2004,
      "çĭ¬": 2005,
      "äº¬": 2006,
      "ated": 2007,
      "æĢĿ": 2008,
      "Ġwork": 2009,
      "Ġ[": 2010,
      "åºĹ": 2011,
      "cap": 2012,
      "æ½": 2013,
      "of": 2014,
      "çģ«": 2015,
      "ç»Ī": 2016,
      "lus": 2017,
      "åħį": 2018,
      "Ġvari": 2019,
      "çĽ®åīį": 2020,
      "æŀĹ": 2021,
      "èĲ½": 2022,
      "è¿Ļä¸Ģ": 2023,
      "Ġfunc": 2024,
      "operator": 2025,
      "Ġcal": 2026,
      "tiv": 2027,
      "Ġdec": 2028,
      "å£°": 2029,
      "å¿µ": 2030,
      "ergy": 2031,
      "éĴ¢": 2032,
      ":=\\": 2033,
      "ç½Ĺ": 2034,
      "ep": 2035,
      "29": 2036,
      "arge": 2037,
      "Ġuse": 2038,
      "å¨": 2039,
      "Ġ}": 2040,
      "ä¸ĬçļĦ": 2041,
      "{(": 2042,
      "åĲ¸": 2043,
      "é¾": 2044,
      "Ġinto": 2045,
      "sity": 2046,
      "æĤ¨": 2047,
      "éĺ¶": 2048,
      "å¼Ģå§ĭ": 2049,
      "Ġ&=": 2050,
      "operatorname": 2051,
      "æīĢä»¥": 2052,
      "è¿Ļæł·": 2053,
      "able": 2054,
      "çļĦæĺ¯": 2055,
      "çĽĬ": 2056,
      "Ġinter": 2057,
      "Ġanal": 2058,
      "åį¡": 2059,
      "ory": 2060,
      "peri": 2061,
      "equ": 2062,
      "rightarrow": 2063,
      "åºľ": 2064,
      "çİĭ": 2065,
      "çĻ¾": 2066,
      "çļ®": 2067,
      "æ¯Ķè¾ĥ": 2068,
      "ize": 2069,
      "au": 2070,
      "cri": 2071,
      "Ġwhen": 2072,
      "è°±": 2073,
      "Ġover": 2074,
      "æĽ²": 2075,
      "äº¿": 2076,
      "åĦ¿": 2077,
      "ä½ı": 2078,
      "26": 2079,
      "æĵį": 2080,
      "cess": 2081,
      "äºī": 2082,
      "<\\": 2083,
      "è¡¨ç¤º": 2084,
      "tional": 2085,
      "Ġnon": 2086,
      "æĹ©": 2087,
      "widetilde": 2088,
      "æĿ¡ä»¶": 2089,
      "tribu": 2090,
      "Ġrela": 2091,
      "å¥¹": 2092,
      "ç«¯": 2093,
      "äº§ä¸ļ": 2094,
      "æ±Ł": 2095,
      "åģĩ": 2096,
      "ial": 2097,
      "åł": 2098,
      "æİ§åĪ¶": 2099,
      "åŁ¹": 2100,
      "è´Ń": 2101,
      "widehat": 2102,
      "ä¸įæĺ¯": 2103,
      "ç¼ĸ": 2104,
      "é¡»": 2105,
      "Ġappro": 2106,
      "prod": 2107,
      "ĠIt": 2108,
      "å¾Īå¤ļ": 2109,
      "Ġbeen": 2110,
      "|^": 2111,
      "Ġup": 2112,
      "æĸ°çļĦ": 2113,
      "åı¤": 2114,
      "åĽº": 2115,
      "åħ³ç³»": 2116,
      "åŃ£": 2117,
      "åħļ": 2118,
      "å®ļçļĦ": 2119,
      "rough": 2120,
      "gne": 2121,
      "å½¢æĪĲ": 2122,
      "mber": 2123,
      "è½»": 2124,
      "45": 2125,
      "åİĤ": 2126,
      "Ġpe": 2127,
      "pa": 2128,
      "round": 2129,
      "è¯ģæĺİ": 2130,
      "subset": 2131,
      "pend": 2132,
      "å·´": 2133,
      "æŁĲ": 2134,
      "åĨĽ": 2135,
      "ins": 2136,
      "48": 2137,
      "æİ¢": 2138,
      "un": 2139,
      "Ġabout": 2140,
      "teri": 2141,
      "Ġif": 2142,
      "irst": 2143,
      "åĽ½éĻħ": 2144,
      "den": 2145,
      "}}{\\": 2146,
      "å¾ģ": 2147,
      "Ġcou": 2148,
      "æĮ¯": 2149,
      "75": 2150,
      "éĵ¶": 2151,
      "åĩ½": 2152,
      "ä¹Łæĺ¯": 2153,
      "åı¦": 2154,
      "35": 2155,
      "åºķ": 2156,
      ")\\,": 2157,
      "èµ°": 2158,
      "æıĲé«ĺ": 2159,
      "&=": 2160,
      "çĶ¨æĪ·": 2161,
      "tec": 2162,
      "å¾ĭ": 2163,
      "/\\": 2164,
      "est": 2165,
      "æ¨¡å¼ı": 2166,
      "Ġstar": 2167,
      "Ġinclu": 2168,
      "æĬķèµĦ": 2169,
      "ose": 2170,
      "æĤ£": 2171,
      "çĵ": 2172,
      "çŃĳ": 2173,
      "Ġwell": 2174,
      "Ġsur": 2175,
      "éĩĩçĶ¨": 2176,
      "æŃ¢": 2177,
      "æĭŁ": 2178,
      "åıĭ": 2179,
      "Ġpartic": 2180,
      "99": 2181,
      "(-": 2182,
      "æģĴ": 2183,
      "æĹĭ": 2184,
      "æĸĩåĮĸ": 2185,
      "ora": 2186,
      "æ¦Ĥ": 2187,
      "èĻĳ": 2188,
      "38": 2189,
      "ise": 2190,
      "æĸ¹æ¡Ī": 2191,
      "æĿĳ": 2192,
      "})=": 2193,
      "æľīæķĪ": 2194,
      "cha": 2195,
      "Ġsub": 2196,
      "Ġun": 2197,
      "Ġhow": 2198,
      "çīĪ": 2199,
      "åĳ³": 2200,
      "Ġdisc": 2201,
      "~~": 2202,
      "Ġfe": 2203,
      "rame": 2204,
      "åıĳçĶŁ": 2205,
      "velop": 2206,
      "ç¡Ģ": 2207,
      "æ¤": 2208,
      "mbox": 2209,
      "æ¿": 2210,
      "åĨ·": 2211,
      "ä¸¾": 2212,
      "ç´¢": 2213,
      "Ġcla": 2214,
      "è§ī": 2215,
      "Ġch": 2216,
      "}}(": 2217,
      "nce": 2218,
      "å¤§å®¶": 2219,
      "Ġused": 2220,
      "Ġes": 2221,
      "ton": 2222,
      "ving": 2223,
      "å®ŀéªĮ": 2224,
      "æĹħ": 2225,
      "Ġresults": 2226,
      "èĴ": 2227,
      "}^{-": 2228,
      "å¸Į": 2229,
      "Ġæĺ¯": 2230,
      "æ¶²": 2231,
      "è¯¾": 2232,
      "ian": 2233,
      "ç²Ĵ": 2234,
      "66": 2235,
      "act": 2236,
      "cup": 2237,
      "å°½": 2238,
      "å¯Į": 2239,
      "åŁºç¡Ģ": 2240,
      "å½ķ": 2241,
      "ç»Ħç»ĩ": 2242,
      "ning": 2243,
      "åħ°": 2244,
      "å®¡": 2245,
      "ects": 2246,
      "æ±½": 2247,
      "éĿĴ": 2248,
      "tin": 2249,
      "Ġwho": 2250,
      "æĪĳä»¬çļĦ": 2251,
      "Ġhel": 2252,
      "du": 2253,
      "éĵģ": 2254,
      "ä½Ĩæĺ¯": 2255,
      "å¤§åŃ¦": 2256,
      "äººçļĦ": 2257,
      "Ġrep": 2258,
      "Ġnu": 2259,
      "å±ħ": 2260,
      "åįķä½į": 2261,
      "Ġobserv": 2262,
      "åı²": 2263,
      "åį°": 2264,
      "èģļ": 2265,
      "'s": 2266,
      "({\\": 2267,
      "long": 2268,
      "tag": 2269,
      "çĶ»": 2270,
      "æ¿Ģ": 2271,
      "åĿĹ": 2272,
      "ç¬¦": 2273,
      "Ġwere": 2274,
      "Ġstudy": 2275,
      "å¼Ģåıĳ": 2276,
      "è´§": 2277,
      "èī¯": 2278,
      "ç§ĳæĬĢ": 2279,
      "é»ĳ": 2280,
      "37": 2281,
      "ong": 2282,
      "åĲĪä½ľ": 2283,
      "å¹³åı°": 2284,
      "Ġbec": 2285,
      "çłģ": 2286,
      "ite": 2287,
      "Sigma": 2288,
      "åĩ»": 2289,
      "åħ¸": 2290,
      "åĸĦ": 2291,
      "åŃ¦ä¹ł": 2292,
      "åĪ©çĶ¨": 2293,
      "çķ¥": 2294,
      "Ġtra": 2295,
      "Ġelec": 2296,
      "\\!": 2297,
      "åĨħå®¹": 2298,
      "åĵģçīĮ": 2299,
      "47": 2300,
      "pmatrix": 2301,
      "è®¨": 2302,
      "çļĦä¸Ģ": 2303,
      ").\\)": 2304,
      "Ġph": 2305,
      "Ġsec": 2306,
      "49": 2307,
      "Ġwhere": 2308,
      "æī¾": 2309,
      "å®¢æĪ·": 2310,
      "æĹ¶åĢĻ": 2311,
      "çī¹åĪ«": 2312,
      "36": 2313,
      "Ġthere": 2314,
      "æĶ¿åºľ": 2315,
      "çļĦäºº": 2316,
      "80": 2317,
      "Ġquan": 2318,
      "åħ´": 2319,
      "alth": 2320,
      "åĤ": 2321,
      "),\\": 2322,
      "ors": 2323,
      "Ġpol": 2324,
      "Ġusing": 2325,
      "Ġknow": 2326,
      "ä»»ä½ķ": 2327,
      "Ġmea": 2328,
      "ak": 2329,
      "èĨ": 2330,
      "éĺ¿": 2331,
      "\\}": 2332,
      "ç¾İåĽ½": 2333,
      "åĨĻ": 2334,
      "ĠäºĨ": 2335,
      "å¢ŀåĬł": 2336,
      "ä¼°": 2337,
      "Ġany": 2338,
      "æĪı": 2339,
      "æķħ": 2340,
      "å¯Ł": 2341,
      "Ġenergy": 2342,
      "olution": 2343,
      "çŁŃ": 2344,
      "_{-": 2345,
      "ress": 2346,
      "39": 2347,
      "åĩ½æķ°": 2348,
      "éĢģ": 2349,
      "åŁİå¸Ĥ": 2350,
      "reat": 2351,
      "åĲ¦": 2352,
      "çºª": 2353,
      "éĥ½æĺ¯": 2354,
      "Ġres": 2355,
      "åŁºæľ¬": 2356,
      "äºĳ": 2357,
      "èĢĥèĻĳ": 2358,
      "çĸ«": 2359,
      "ond": 2360,
      "equiv": 2361,
      "Ġinf": 2362,
      "thod": 2363,
      "Ġty": 2364,
      "Ġexperi": 2365,
      ")}\\)": 2366,
      "ack": 2367,
      "ven": 2368,
      "æĵįä½ľ": 2369,
      "åį´": 2370,
      "å¦Ĥä½ķ": 2371,
      "ç¬¬äºĮ": 2372,
      "}\\}\\)": 2373,
      "Ġ=\\": 2374,
      "Ġ\\([": 2375,
      "é²": 2376,
      "Ġlow": 2377,
      "cy": 2378,
      "å»ºçŃĳ": 2379,
      "é¢ĨåŁŁ": 2380,
      "ç¡®å®ļ": 2381,
      "è½¯": 2382,
      "Ġthem": 2383,
      "æĿĤ": 2384,
      "Ġman": 2385,
      "åŃ©": 2386,
      "è¡¥": 2387,
      "çİ°åľ¨": 2388,
      "ä¸ºäºĨ": 2389,
      "å¯¼èĩ´": 2390,
      "fe": 2391,
      "ese": 2392,
      "æıı": 2393,
      "åĲĦç§į": 2394,
      "æ¥": 2395,
      ")|": 2396,
      "Ġmost": 2397,
      "æ¸©åº¦": 2398,
      "ub": 2399,
      "æ··": 2400,
      "æıĲåĩº": 2401,
      "ä¸´": 2402,
      "éĤ£ä¹Ī": 2403,
      "Ġval": 2404,
      "åĪĽæĸ°": 2405,
      "cases": 2406,
      "ration": 2407,
      "æ²»çĸĹ": 2408,
      "ç«ŀ": 2409,
      "Ġfirst": 2410,
      "ful": 2411,
      "Ġonly": 2412,
      "æĴŃ": 2413,
      "éĺ¶æ®µ": 2414,
      "Ġfield": 2415,
      "äºĨè§£": 2416,
      "dt": 2417,
      "sc": 2418,
      "é¢Ŀ": 2419,
      "çł´": 2420,
      "å¥ĸ": 2421,
      "åĪ°äºĨ": 2422,
      "mis": 2423,
      "åıĤæķ°": 2424,
      "Ġhis": 2425,
      "è®Ń": 2426,
      "ili": 2427,
      ")}(": 2428,
      "ç´§": 2429,
      "46": 2430,
      "ym": 2431,
      "ç¦ı": 2432,
      "æķ°åŃĹ": 2433,
      "åįł": 2434,
      "çıŃ": 2435,
      "è¡¨æĺİ": 2436,
      "ç¼©": 2437,
      "å°¼": 2438,
      "ia": 2439,
      "Ġwor": 2440,
      "Ġproduc": 2441,
      "all": 2442,
      "åĿļ": 2443,
      "çĨ": 2444,
      "è´¢": 2445,
      "éĵ¾": 2446,
      "æŀ¶": 2447,
      "åįļ": 2448,
      "çĶ³": 2449,
      "edge": 2450,
      "70": 2451,
      "æĪĸèĢħ": 2452,
      "æī§": 2453,
      "Ġprocess": 2454,
      "ance": 2455,
      "éĥ¨éĹ¨": 2456,
      "\\,\\": 2457,
      "Ġneed": 2458,
      "éĽ¶": 2459,
      "Ġdevelop": 2460,
      "éĽĨåĽ¢": 2461,
      "åīĤ": 2462,
      "'(": 2463,
      "åĨ²": 2464,
      "}.\\)": 2465,
      "æľīåħ³": 2466,
      "Ġdifferent": 2467,
      "ok": 2468,
      "ice": 2469,
      "90": 2470,
      "çķĻ": 2471,
      "åİ¿": 2472,
      "å·¥ä¸ļ": 2473,
      "åıĺåĮĸ": 2474,
      "è·Ŀ": 2475,
      "Ġcur": 2476,
      "è®²": 2477,
      "æī¹": 2478,
      "æľ¨": 2479,
      "æ¬§": 2480,
      "éľĢæ±Ĥ": 2481,
      "å¸®": 2482,
      "}]": 2483,
      "åŃ¦æł¡": 2484,
      "è¿ĲåĬ¨": 2485,
      "å®ĮæĪĲ": 2486,
      "äº«": 2487,
      "oc": 2488,
      "è½½": 2489,
      "èĮĥåĽ´": 2490,
      "çĽĺ": 2491,
      "åį«": 2492,
      "ved": 2493,
      "å¿Ĺ": 2494,
      "éĶ®": 2495,
      "88": 2496,
      "tis": 2497,
      "ä»ª": 2498,
      "æ¶Īè´¹": 2499,
      "æĻºèĥ½": 2500,
      "ç»§": 2501,
      "vert": 2502,
      "å¿ħé¡»": 2503,
      "æľĪæĹ¥": 2504,
      "Ġmethod": 2505,
      "é¡º": 2506,
      "Ġcomple": 2507,
      "è¯»": 2508,
      "ç®Ģåįķ": 2509,
      "çĽ´æİ¥": 2510,
      "æŁĵ": 2511,
      "æįŁ": 2512,
      "struc": 2513,
      "tant": 2514,
      "éĺµ": 2515,
      "åī§": 2516,
      "xy": 2517,
      "æ±¡": 2518,
      "55": 2519,
      "éļľ": 2520,
      "èµĦæºĲ": 2521,
      "Ġproper": 2522,
      "æĢ§çļĦ": 2523,
      "igned": 2524,
      "ç»Ŀ": 2525,
      "æľºæŀĦ": 2526,
      "ç§ĳåŃ¦": 2527,
      "æĬĹ": 2528,
      "åľ°åĮº": 2529,
      "lations": 2530,
      "ä½ĵçļĦ": 2531,
      "ings": 2532,
      "çªģ": 2533,
      "Ġproble": 2534,
      "è®¤ä¸º": 2535,
      "ç»ĵåĲĪ": 2536,
      "éĩĬ": 2537,
      "å¢ŀéķ¿": 2538,
      "ç¿": 2539,
      "Ġ-\\": 2540,
      "åģ¥åº·": 2541,
      "work": 2542,
      "ist": 2543,
      "ene": 2544,
      "åĪĨå¸ĥ": 2545,
      "é»Ħ": 2546,
      "Ġmass": 2547,
      "è½®": 2548,
      "æĶ¯æĮģ": 2549,
      "æĭħ": 2550,
      "In": 2551,
      "ä»¤": 2552,
      "mer": 2553,
      "ä¸įèĥ½": 2554,
      "Ġconsi": 2555,
      "tum": 2556,
      "çĩ": 2557,
      "hile": 2558,
      "Ġ:=": 2559,
      "å®Ŀ": 2560,
      "Ġstruc": 2561,
      "ä¸įæĸŃ": 2562,
      "Ġä¸Ń": 2563,
      "ä½Ļ": 2564,
      "æ¬¢": 2565,
      "éĢŁåº¦": 2566,
      "ä¸°": 2567,
      "è¿Ļæĺ¯": 2568,
      "ä¸ĢæŃ¥": 2569,
      "ough": 2570,
      "sive": 2571,
      "è¡Ģ": 2572,
      "ä»¥ä¸Ĭ": 2573,
      "ici": 2574,
      "ive": 2575,
      "èĥ½éĩı": 2576,
      "Ġchi": 2577,
      "}[": 2578,
      "æĿ¥è¯´": 2579,
      "limits": 2580,
      "äº²": 2581,
      "è¿ĺæĺ¯": 2582,
      "ru": 2583,
      "bigg": 2584,
      "ä»£è¡¨": 2585,
      "èĩªå·±çļĦ": 2586,
      "æľ¬æĸĩ": 2587,
      "34": 2588,
      "Ġthrough": 2589,
      "ç¨³å®ļ": 2590,
      "mension": 2591,
      "ç»į": 2592,
      ")+\\": 2593,
      "bra": 2594,
      "æ°´å¹³": 2595,
      "Ġtech": 2596,
      "tors": 2597,
      "Ġpos": 2598,
      "æıĲåįĩ": 2599,
      "^{-\\": 2600,
      "å®³": 2601,
      "èĻ½": 2602,
      "é¾Ļ": 2603,
      "å¥Ĺ": 2604,
      "èĩªçĦ¶": 2605,
      "ä»į": 2606,
      "ert": 2607,
      "é¦Ļ": 2608,
      "è°ĥæŁ¥": 2609,
      "}^{*": 2610,
      "è¡Įä¸º": 2611,
      "ä¹°": 2612,
      "Ġsupp": 2613,
      "bility": 2614,
      "éĻĦ": 2615,
      "65": 2616,
      "åħ³äºİ": 2617,
      "}^{+": 2618,
      "è®¸å¤ļ": 2619,
      "æ´²": 2620,
      "ä¿ĿæĬ¤": 2621,
      "ople": 2622,
      "åĪ°çļĦ": 2623,
      "å½¢å¼ı": 2624,
      "ag": 2625,
      "ark": 2626,
      "ness": 2627,
      "ä¸ªäºº": 2628,
      "sible": 2629,
      "ĠĠčĊ": 2630,
      "çľ¼": 2631,
      "Ġä¸Ģ": 2632,
      "éĢı": 2633,
      "æłĳ": 2634,
      "Ġbu": 2635,
      "æĿ¥çļĦ": 2636,
      "åºĵ": 2637,
      "formation": 2638,
      "åħ¨çĲĥ": 2639,
      "|_{": 2640,
      "ä¸įä¼ļ": 2641,
      "ç¼º": 2642,
      "åĸľ": 2643,
      "med": 2644,
      "*{": 2645,
      "åĮºåŁŁ": 2646,
      "ä¸ļåĬ¡": 2647,
      "85": 2648,
      "æīĺ": 2649,
      "mi": 2650,
      "ç»¼": 2651,
      "gnetic": 2652,
      "Ġfind": 2653,
      "Ġuni": 2654,
      "ov": 2655,
      "Ġboth": 2656,
      "æ±½è½¦": 2657,
      "æĭĽ": 2658,
      "arch": 2659,
      "æľĢåĲİ": 2660,
      "Ġdy": 2661,
      "95": 2662,
      "å¯¹ç§°": 2663,
      "åº¦çļĦ": 2664,
      "Ġhelp": 2665,
      "Ġimpor": 2666,
      "ä»·æł¼": 2667,
      "Ġ20": 2668,
      "ron": 2669,
      "ç½ĳç«Ļ": 2670,
      "éļıçĿĢ": 2671,
      "ä»ĭç»į": 2672,
      "å®£": 2673,
      "å¾Ħ": 2674,
      "è®¡åĪĴ": 2675,
      "ç¨İ": 2676,
      "sup": 2677,
      "åħŃ": 2678,
      "è§Ĥæµĭ": 2679,
      "ind": 2680,
      "Ġtemp": 2681,
      ")^{-": 2682,
      "ç¯": 2683,
      "Ġresp": 2684,
      "ined": 2685,
      "ower": 2686,
      "44": 2687,
      "çĽ¸å¯¹": 2688,
      "æ³¨æĦı": 2689,
      "ology": 2690,
      "wa": 2691,
      "Ġter": 2692,
      "éĶĻ": 2693,
      "å®ŀéĻħ": 2694,
      "æĸ¹ç¨ĭ": 2695,
      "éħ¸": 2696,
      "tra": 2697,
      "wedge": 2698,
      "æĭ¥": 2699,
      "åĪ¶éĢł": 2700,
      "]\\": 2701,
      "ens": 2702,
      "è¡¨éĿ¢": 2703,
      "77": 2704,
      "åįĥ": 2705,
      "åŃ©åŃĲ": 2706,
      "åħ¨åĽ½": 2707,
      "&{{": 2708,
      "åĲĥ": 2709,
      "Ġstate": 2710,
      "äººæ°ĳ": 2711,
      "Ġyear": 2712,
      "Ġgrou": 2713,
      "Ġmany": 2714,
      "èĢĮä¸Ķ": 2715,
      "_{(": 2716,
      "Ġpresent": 2717,
      "ä¹ĭåĲİ": 2718,
      "çĽ®æłĩ": 2719,
      "ever": 2720,
      "åĮĹäº¬": 2721,
      "Ġclass": 2722,
      "ler": 2723,
      "å®ĺ": 2724,
      "Ġfac": 2725,
      "åī¯": 2726,
      "Ġpaper": 2727,
      "çº¿æĢ§": 2728,
      "èĥĮ": 2729,
      "æĤ£èĢħ": 2730,
      "å³": 2731,
      "èĪª": 2732,
      "æľīéĻĲåħ¬åı¸": 2733,
      "å¥ĩ": 2734,
      "68": 2735,
      "Ġden": 2736,
      "ans": 2737,
      "æķĪæŀľ": 2738,
      "Ġfound": 2739,
      "Ġ\"": 2740,
      "ç»¿": 2741,
      "ically": 2742,
      "æĽ¾": 2743,
      "åľĨ": 2744,
      "å»ºç«ĭ": 2745,
      "è¾¾åĪ°": 2746,
      "Ġunder": 2747,
      "ä¸Ģå®ļ": 2748,
      "32": 2749,
      "çĽĸ": 2750,
      "ie": 2751,
      "ä¹İ": 2752,
      "æ¸¸æĪı": 2753,
      "ymme": 2754,
      "Ġsuper": 2755,
      "mid": 2756,
      "æııè¿°": 2757,
      "ala": 2758,
      ")\\\\": 2759,
      "ä¼łç»Ł": 2760,
      "ĠFor": 2761,
      "ç«ł": 2762,
      "å¾ħ": 2763,
      "ç³»åĪĹ": 2764,
      "å¥¥": 2765,
      "\\{\\": 2766,
      "å®Įåħ¨": 2767,
      "sition": 2768,
      "elf": 2769,
      "ang": 2770,
      "ä½³": 2771,
      "69": 2772,
      "color": 2773,
      "uring": 2774,
      "èĭ¥": 2775,
      "ccc": 2776,
      "èĩªåĬ¨": 2777,
      "Ġhealth": 2778,
      ")}{\\": 2779,
      "\\}\\)": 2780,
      "ãĢĤ}": 2781,
      "ä¹ĭéĹ´çļĦ": 2782,
      "qquad": 2783,
      "éĩıåŃĲ": 2784,
      "é¸": 2785,
      "èĭı": 2786,
      "é¡¶": 2787,
      "Ġset": 2788,
      "Ġ_{": 2789,
      "éĩıçļĦ": 2790,
      "å®ĩ": 2791,
      "å»¶": 2792,
      "åħīè°±": 2793,
      "åĽ½åĨħ": 2794,
      "åº§": 2795,
      "æģĴæĺŁ": 2796,
      "æĽ´å¤ļ": 2797,
      "éĻĲåĪ¶": 2798,
      "qui": 2799,
      "è®¨è®º": 2800,
      "Ġnumber": 2801,
      "Ġquantum": 2802,
      "tory": 2803,
      "çī¹æĢ§": 2804,
      "tal": 2805,
      "æĬ¥åĳĬ": 2806,
      "Ġspace": 2807,
      "Ġcondi": 2808,
      ".}\\": 2809,
      "å¹´çļĦ": 2810,
      "try": 2811,
      "æĿŁ": 2812,
      "ä¹ĭä¸Ģ": 2813,
      "è§Ħæ¨¡": 2814,
      "\\|_{": 2815,
      "Ġobtain": 2816,
      "sim": 2817,
      "Ġorder": 2818,
      "Ġlike": 2819,
      "æ¸¯": 2820,
      "æ¯į": 2821,
      "tance": 2822,
      "Ġscal": 2823,
      "old": 2824,
      "æ£Ģæµĭ": 2825,
      "å¼Ģå±ķ": 2826,
      "è§Ħå®ļ": 2827,
      "çĹĩ": 2828,
      "åħ³éĶ®": 2829,
      "çĮ®": 2830,
      "Ġ\\{": 2831,
      "Ġcar": 2832,
      "io": 2833,
      "ç»ıèĲ¥": 2834,
      "liz": 2835,
      "31": 2836,
      "åĬ³": 2837,
      "å°ģ": 2838,
      "æĶ¿çŃĸ": 2839,
      "Ġtheory": 2840,
      "æ¨¡æĭŁ": 2841,
      "æĢ§èĥ½": 2842,
      "Ġtrans": 2843,
      "çĦ¶åĲİ": 2844,
      "åĩĢ": 2845,
      "ization": 2846,
      "åĬ¨æĢģ": 2847,
      "Ġ\\(\\{\\": 2848,
      "ling": 2849,
      "ä¼¤": 2850,
      "Ġmu": 2851,
      "éĿł": 2852,
      "éĿ©": 2853,
      "Ġcons": 2854,
      "åĩıå°ĳ": 2855,
      "å¯Ĩåº¦": 2856,
      "ä¸Ģèµ·": 2857,
      "åĵª": 2858,
      "Ġste": 2859,
      "ä¿ĥ": 2860,
      "æ¹ĸ": 2861,
      "textcolor": 2862,
      "èĻ½çĦ¶": 2863,
      "åģľ": 2864,
      "éĢłæĪĲ": 2865,
      "åĨł": 2866,
      "Ġpeople": 2867,
      "çī©è´¨": 2868,
      "bin": 2869,
      "ric": 2870,
      "wn": 2871,
      "å®ĥä»¬": 2872,
      "78": 2873,
      "æ³Ľ": 2874,
      "éĴŁ": 2875,
      "ç²ī": 2876,
      "colon": 2877,
      "ure": 2878,
      "max": 2879,
      "ely": 2880,
      "éĴĪ": 2881,
      "è¿Ľåħ¥": 2882,
      "Ġmul": 2883,
      "im": 2884,
      "Ġ\\;": 2885,
      "Ġradi": 2886,
      "æĿ¾": 2887,
      "æ´Ĺ": 2888,
      "98": 2889,
      "bit": 2890,
      "æĮģç»Ń": 2891,
      "ç»¼åĲĪ": 2892,
      "èĥ½æºĲ": 2893,
      "å¸ĮæľĽ": 2894,
      "æĿİ": 2895,
      "tential": 2896,
      "çĻ»": 2897,
      "}/": 2898,
      "æ°§": 2899,
      "Ġfunction": 2900,
      "Ġparame": 2901,
      "èĸ": 2902,
      "tron": 2903,
      "ase": 2904,
      "çŁ¥éģĵ": 2905,
      "ced": 2906,
      "åı³": 2907,
      "åĮ»éĻ¢": 2908,
      "}^\\": 2909,
      "åĪ»": 2910,
      "è¶ħè¿ĩ": 2911,
      "Ġexa": 2912,
      "des": 2913,
      "è·Ł": 2914,
      "æĹı": 2915,
      "è¿Ľä¸ĢæŃ¥": 2916,
      "æŃ¤å¤ĸ": 2917,
      "åĬ¨åĬĽ": 2918,
      "fter": 2919,
      "Ġsol": 2920,
      "çŁ¥è¯Ĩ": 2921,
      "çĶ·": 2922,
      "å¹ħ": 2923,
      "gen": 2924,
      "Ġlarge": 2925,
      "perp": 2926,
      "é¦Ĩ": 2927,
      "æ¯Ĵ": 2928,
      "ä»·åĢ¼": 2929,
      "Ġdef": 2930,
      "tand": 2931,
      "è¿ĻéĩĮ": 2932,
      "dag": 2933,
      "istic": 2934,
      "è¿ĺæľī": 2935,
      "ism": 2936,
      "åĤ¨": 2937,
      "fore": 2938,
      "ple": 2939,
      "ä»ĺ": 2940,
      "Ġdescri": 2941,
      "Ġund": 2942,
      "å·¦": 2943,
      "å©": 2944,
      "èĥľ": 2945,
      "Ġgiv": 2946,
      "=-": 2947,
      "Ġpha": 2948,
      "uss": 2949,
      "æ½ľ": 2950,
      ")^{\\": 2951,
      "å¸®åĬ©": 2952,
      "é£ŀ": 2953,
      "aligned": 2954,
      "å¤«": 2955,
      "åĲ¬": 2956,
      "è´Łè´£": 2957,
      "vely": 2958,
      "Ġdistribu": 2959,
      "mental": 2960,
      "hen": 2961,
      "åª": 2962,
      "çĻľ": 2963,
      "å¹¶ä¸Ķ": 2964,
      "éķĩ": 2965,
      "ä¸įåĲĮçļĦ": 2966,
      "æĺ¥": 2967,
      "èĢĲ": 2968,
      "&=\\": 2969,
      "çģµ": 2970,
      "åĮĸçļĦ": 2971,
      "ating": 2972,
      "éĶĢåĶ®": 2973,
      "çī©çĲĨ": 2974,
      "Ġsystems": 2975,
      "æ¢°": 2976,
      "éĢĲ": 2977,
      "}\\}_{": 2978,
      "Ġline": 2979,
      "¤Ĳ": 2980,
      "æĥħåĨµä¸ĭ": 2981,
      "æĭ¥æľī": 2982,
      "å½©": 2983,
      "ç§¯æŀģ": 2984,
      "æĹĭè½¬": 2985,
      "tent": 2986,
      "åģı": 2987,
      "éĩĳå±ŀ": 2988,
      "èĹ": 2989,
      "ä»¥ä¸ĭ": 2990,
      "ective": 2991,
      "é¼": 2992,
      "div": 2993,
      "æ¯ĶèµĽ": 2994,
      "å°º": 2995,
      "å¾ĹåĪ°": 2996,
      "tivity": 2997,
      "mall": 2998,
      "|^{": 2999,
      "çĻ½çĻľ": 3000,
      "000": 3001,
      "ç¡¬": 3002,
      "av": 3003,
      "cep": 3004,
      "æĹłæ³ķ": 3005,
      "Ġtempera": 3006,
      "age": 3007,
      "Ġke": 3008,
      "åºĶè¯¥": 3009,
      "ren": 3010,
      "ill": 3011,
      "ord": 3012,
      "ç»ĦæĪĲ": 3013,
      "ected": 3014,
      "å®ŀæĸ½": 3015,
      "ality": 3016,
      "åºŃ": 3017,
      "æ¯ıä¸ª": 3018,
      "if": 3019,
      "å»ºè®®": 3020,
      "çĽ¸äºĴ": 3021,
      "Ġallow": 3022,
      "97": 3023,
      ")-\\": 3024,
      "çŃ¾": 3025,
      "ody": 3026,
      "çīĽ": 3027,
      "å¡ĳ": 3028,
      "çĻ½çĻľé£İ": 3029,
      "æĸ¹åĲĳ": 3030,
      "ç»ĥ": 3031,
      "æĪĲåĬŁ": 3032,
      "ä¸įä»ħ": 3033,
      "èĳĹ": 3034,
      "æľªæĿ¥": 3035,
      "é¥®": 3036,
      "æĪĲæľ¬": 3037,
      "ç¨ĭåºı": 3038,
      "å®½": 3039,
      "éº": 3040,
      "çļĦå¤§": 3041,
      "åıªæľī": 3042,
      "è¯¢": 3043,
      "æ±ī": 3044,
      "Ġmin": 3045,
      "éģ¿": 3046,
      "ç»©": 3047,
      "é½": 3048,
      "éĨ": 3049,
      "æ¤į": 3050,
      ".-": 3051,
      "range": 3052,
      "Ġvery": 3053,
      "Ġthen": 3054,
      "åŃ¦éĻ¢": 3055,
      "åĳ¢": 3056,
      "çİ©": 3057,
      "äºĨä¸Ģ": 3058,
      "éĿĻ": 3059,
      "ume": 3060,
      "ngth": 3061,
      "å®¹æĺĵ": 3062,
      "tter": 3063,
      "ç±»åŀĭ": 3064,
      "Ġinterac": 3065,
      "äº®": 3066,
      "Ġshould": 3067,
      "åı¶": 3068,
      "äººä»¬": 3069,
      "Ġgo": 3070,
      "ä¹¡": 3071,
      "è§¦": 3072,
      "éļĶ": 3073,
      "æĮ¥": 3074,
      "æĦ¿": 3075,
      "Ġconf": 3076,
      "èĵ": 3077,
      "form": 3078,
      "nge": 3079,
      "èīºæľ¯": 3080,
      "}|\\": 3081,
      "sh": 3082,
      "Ġcase": 3083,
      "64": 3084,
      "Ġau": 3085,
      "Ġhy": 3086,
      "çĶŁçī©": 3087,
      "å·¨": 3088,
      "Ġmake": 3089,
      "Ġeach": 3090,
      "ä¿ĿæĮģ": 3091,
      "åĲ¯": 3092,
      "mission": 3093,
      "less": 3094,
      "Ġimportant": 3095,
      "æ¶ī": 3096,
      "çĶļ": 3097,
      "è¿ŀæİ¥": 3098,
      "Ġinves": 3099,
      "Ġeven": 3100,
      "Ġag": 3101,
      "Ġmain": 3102,
      "rin": 3103,
      "lish": 3104,
      "è¿ĩç¨ĭä¸Ń": 3105,
      "æ»ĳ": 3106,
      "çĶ³è¯·": 3107,
      "ics": 3108,
      "Ġpri": 3109,
      "lack": 3110,
      "å¨ģ": 3111,
      "ç²ĴåŃĲ": 3112,
      "dic": 3113,
      "oplus": 3114,
      "è½´": 3115,
      "fora": 3116,
      "},\\)": 3117,
      "æĺ¯ä¸Ģ": 3118,
      "),\\)": 3119,
      "å±ķç¤º": 3120,
      "Ġconc": 3121,
      "Ġprovid": 3122,
      "éģĩ": 3123,
      "åıĳå¸ĥ": 3124,
      "Ġpotential": 3125,
      "æĺ¯åĲ¦": 3126,
      "58": 3127,
      "æĺŁç³»": 3128,
      "}{(": 3129,
      "Pi": 3130,
      "igni": 3131,
      "åİĨåı²": 3132,
      "under": 3133,
      "Ġsing": 3134,
      "æ£ĢæŁ¥": 3135,
      "Ġsour": 3136,
      "Ġlevel": 3137,
      "æ»¡è¶³": 3138,
      "ross": 3139,
      "Ġbound": 3140,
      "sing": 3141,
      "è¯¯": 3142,
      "Ġpower": 3143,
      "è¡¡": 3144,
      "fer": 3145,
      ".}": 3146,
      "ç¥¨": 3147,
      "é¤Ĳ": 3148,
      "é¡¿": 3149,
      "æĹħæ¸¸": 3150,
      "forall": 3151,
      "çŁ©": 3152,
      "ational": 3153,
      "Ġsee": 3154,
      "èĥ¶": 3155,
      "èĽ": 3156,
      "ob": 3157,
      "lated": 3158,
      "æİĪ": 3159,
      "ze": 3160,
      "Ġbased": 3161,
      "mate": 3162,
      "namic": 3163,
      "æł¸å¿ĥ": 3164,
      "æĽ´åĬł": 3165,
      "Ġwhat": 3166,
      "Ġæľī": 3167,
      "åªĴ": 3168,
      "è½¨": 3169,
      "binom": 3170,
      "åľ°æĸ¹": 3171,
      "æĪĳåĽ½": 3172,
      "Ġmodels": 3173,
      "tures": 3174,
      "å²ģ": 3175,
      "rop": 3176,
      "Ġdepend": 3177,
      "enume": 3178,
      "Ġclo": 3179,
      "Ġdeter": 3180,
      "Ġmulti": 3181,
      "Ġlocal": 3182,
      "åŁºäºİ": 3183,
      "Ġ\\|": 3184,
      "Ġmeasure": 3185,
      "èĦ±": 3186,
      "è¯ī": 3187,
      "enumerate": 3188,
      "ç®±": 3189,
      "ä½ĵç³»": 3190,
      "éĩįçĤ¹": 3191,
      "itu": 3192,
      "ĠRe": 3193,
      "éĢĢ": 3194,
      "ä¿Ŀè¯ģ": 3195,
      "è´£ä»»": 3196,
      "Ġnatu": 3197,
      "è¿½": 3198,
      "å¼±": 3199,
      "èĨľ": 3200,
      "åĽ°": 3201,
      "å®īè£ħ": 3202,
      "æľºæ¢°": 3203,
      ":\\": 3204,
      "è¿ŀç»Ń": 3205,
      "Ġgeneral": 3206,
      "æķ°éĩı": 3207,
      "57": 3208,
      "Ġä¸º": 3209,
      "dagger": 3210,
      "æ±ł": 3211,
      "çļĦæĹ¶åĢĻ": 3212,
      "itemize": 3213,
      "]=": 3214,
      "è¿İ": 3215,
      "ety": 3216,
      "Ġhad": 3217,
      "ä»İèĢĮ": 3218,
      "Ġ10": 3219,
      "gan": 3220,
      "Ġway": 3221,
      "Ġapproach": 3222,
      "æľŁéĹ´": 3223,
      "Ġchild": 3224,
      "ip": 3225,
      "åİĭåĬĽ": 3226,
      "Ġwould": 3227,
      "ç¬¬ä¸ī": 3228,
      "è®¯": 3229,
      "åħ«": 3230,
      "æĺ¯ä¸Ģä¸ª": 3231,
      "Ġspect": 3232,
      "èĦĳ": 3233,
      "æĢİ": 3234,
      "quen": 3235,
      "åİŁåĽł": 3236,
      "æ¥¼": 3237,
      "Ġfol": 3238,
      "ä¹ħ": 3239,
      "éĴ±": 3240,
      "Ġä¸İ": 3241,
      "çĶ²": 3242,
      "arly": 3243,
      "''": 3244,
      "ized": 3245,
      "å¿«éĢŁ": 3246,
      "Ġwater": 3247,
      "Ġphys": 3248,
      "å®ļä¹ī": 3249,
      "è¿Ĳè¡Į": 3250,
      "vers": 3251,
      "éķľ": 3252,
      "æľĢå¤§": 3253,
      "not": 3254,
      "æĶ»": 3255,
      "æľĢè¿ĳ": 3256,
      "}}^{": 3257,
      "Ġrequi": 3258,
      "è¶£": 3259,
      "Ġlear": 3260,
      "Ġcharac": 3261,
      "Ġhu": 3262,
      "^+": 3263,
      "äº¿åħĥ": 3264,
      "vir": 3265,
      "å®Ļ": 3266,
      "atter": 3267,
      "tiga": 3268,
      "ä¼ļè®®": 3269,
      "=(": 3270,
      "æħ¢": 3271,
      "Ġdirec": 3272,
      "è®¢": 3273,
      "ions": 3274,
      "èģĶç½ĳ": 3275,
      "æµĭè¯ķ": 3276,
      "ç²¾ç¥ŀ": 3277,
      ")/": 3278,
      "æķĻåŃ¦": 3279,
      "va": 3280,
      "æĭ¿": 3281,
      "èµ·æĿ¥": 3282,
      "ĠĠĠ": 3283,
      "ä¸Ĭæµ·": 3284,
      "éĢļå¸¸": 3285,
      "Ġä¸į": 3286,
      "tively": 3287,
      "çĿ£": 3288,
      "cial": 3289,
      "èıľ": 3290,
      "Ġ+\\": 3291,
      "æĸĩä»¶": 3292,
      "yn": 3293,
      "Ġcould": 3294,
      "åĪĨåĪ«": 3295,
      "çĳ": 3296,
      "ignific": 3297,
      "Re": 3298,
      "ä»Ĭå¹´": 3299,
      "å¹¿æ³Ľ": 3300,
      "ently": 3301,
      "Ġdetec": 3302,
      "å¹³åĿĩ": 3303,
      "å¤įæĿĤ": 3304,
      "æ´ŀ": 3305,
      "Ġ\\((\\": 3306,
      "äºĪ": 3307,
      "äº¤æĺĵ": 3308,
      "nds": 3309,
      "ause": 3310,
      "ç®Ĺæ³ķ": 3311,
      "ues": 3312,
      "ç§Ģ": 3313,
      "{{": 3314,
      "ines": 3315,
      "æİª": 3316,
      "ysis": 3317,
      "Ġinformation": 3318,
      "åĪļ": 3319,
      "ring": 3320,
      "ä¾ĭå¦Ĥ": 3321,
      "çŁ¿": 3322,
      "æŃ»": 3323,
      "æŃĮ": 3324,
      "minus": 3325,
      "åıĤä¸İ": 3326,
      "que": 3327,
      "rent": 3328,
      "Ġlead": 3329,
      "åĸ·": 3330,
      "åıĤåĬł": 3331,
      ".\\": 3332,
      "Ġcommu": 3333,
      "Ġgrow": 3334,
      "face": 3335,
      "vera": 3336,
      "èŃ": 3337,
      "ĠThese": 3338,
      "åıĹåĪ°": 3339,
      "Ġgala": 3340,
      "é¥°": 3341,
      "ä»ĸçļĦ": 3342,
      "Ġform": 3343,
      "up": 3344,
      "ists": 3345,
      "200": 3346,
      "ç»ıéªĮ": 3347,
      "è·Ŀç¦»": 3348,
      "èµĸ": 3349,
      "åıĸå¾Ĺ": 3350,
      "é¡¾": 3351,
      "setminus": 3352,
      "Ġiden": 3353,
      "Ġreal": 3354,
      "å®ĩå®Ļ": 3355,
      "ual": 3356,
      "è§Ĥå¯Ł": 3357,
      "Vert": 3358,
      "stra": 3359,
      "æĻļ": 3360,
      "æĿ¥èĩª": 3361,
      "é¢Ħæµĭ": 3362,
      "96": 3363,
      "Ġlong": 3364,
      "å®Ī": 3365,
      "duce": 3366,
      "Ġproblem": 3367,
      "å½Ĵ": 3368,
      "å²Ľ": 3369,
      "Ġdiscuss": 3370,
      "å±Ĭ": 3371,
      "æŃ£å¸¸": 3372,
      "})^{": 3373,
      "trac": 3374,
      "ount": 3375,
      "ä¸Ģæł·": 3376,
      "æĺ¯åľ¨": 3377,
      "è§£åĨ³æĸ¹æ¡Ī": 3378,
      "43": 3379,
      "æ²Ļ": 3380,
      "åĨĮ": 3381,
      "ä¼ĺåĬ¿": 3382,
      "Ġthose": 3383,
      "Ġpart": 3384,
      "å¡Ķ": 3385,
      "å®ģ": 3386,
      "})=\\": 3387,
      "å³°": 3388,
      "Ġins": 3389,
      "ä¸Ģèĩ´": 3390,
      "ç»ıè¿ĩ": 3391,
      "éĻįä½İ": 3392,
      "çĽŁ": 3393,
      "sla": 3394,
      "çī¹å¾ģ": 3395,
      "åĵĪ": 3396,
      "Ġpers": 3397,
      "}^{+}\\)": 3398,
      "ä½ľåĵģ": 3399,
      "inf": 3400,
      "Ġder": 3401,
      "Ġ&\\": 3402,
      "èŃ¦": 3403,
      "èĮ¶": 3404,
      "ä¸Ŀ": 3405,
      "Ġproperties": 3406,
      "åĢį": 3407,
      "è¡¨çİ°": 3408,
      "æī§è¡Į": 3409,
      "tice": 3410,
      "duced": 3411,
      "è´µ": 3412,
      "åħ±åĲĮ": 3413,
      "Ġcalcu": 3414,
      "æıĲä¾ĽäºĨ": 3415,
      "Ġå¯¹": 3416,
      "æ¯ķ": 3417,
      ".\\]": 3418,
      "éĹŃ": 3419,
      "}}_{": 3420,
      "gor": 3421,
      "è®¿": 3422,
      "reen": 3423,
      "ç¼ĺ": 3424,
      "åĨ³å®ļ": 3425,
      ";\\;\\": 3426,
      "æĢ¥": 3427,
      "erstand": 3428,
      "éĻ¤äºĨ": 3429,
      "ç»§ç»Ń": 3430,
      "viron": 3431,
      "omp": 3432,
      ")_{": 3433,
      "ological": 3434,
      "ç¬¦åĲĪ": 3435,
      "42": 3436,
      "Ġlim": 3437,
      "åĩºäºĨ": 3438,
      "bmatrix": 3439,
      "è¯į": 3440,
      "ä¸ĢçĽ´": 3441,
      "çİ°ä»£": 3442,
      "çİ°åľº": 3443,
      "åĪĨåŃĲ": 3444,
      "çŃĶ": 3445,
      "èįī": 3446,
      "æŃ¦": 3447,
      "Ġphase": 3448,
      "çº¸": 3449,
      "Ġsame": 3450,
      "ç§Ł": 3451,
      "Ġparticular": 3452,
      "æĮīçħ§": 3453,
      "åĮĸåŃ¦": 3454,
      "Ġbel": 3455,
      "Ġsmall": 3456,
      "Ġstructure": 3457,
      "åİļ": 3458,
      "Ġsign": 3459,
      "^{+": 3460,
      "èĩªçĶ±": 3461,
      "éĩĳèŀį": 3462,
      "çĩĥ": 3463,
      "åŁ¹è®Ń": 3464,
      "Ġback": 3465,
      "åĩºçļĦ": 3466,
      "ä¼¦": 3467,
      "nts": 3468,
      "Ġprovide": 3469,
      "æĹ¶ä»£": 3470,
      "çłĶåıĳ": 3471,
      "Ġsignific": 3472,
      "åħ¨éĿ¢": 3473,
      "_+": 3474,
      "}},": 3475,
      ",\\,\\": 3476,
      "æľºåĪ¶": 3477,
      "çĶļèĩ³": 3478,
      "Ġmagnetic": 3479,
      "è¯º": 3480,
      "çĥĪ": 3481,
      "Ġsimu": 3482,
      "Ġ<": 3483,
      "çĸ«æĥħ": 3484,
      "çĸ¾": 3485,
      "fied": 3486,
      "è§£éĩĬ": 3487,
      "ific": 3488,
      "Ġwhile": 3489,
      "87": 3490,
      "val": 3491,
      "ick": 3492,
      "ita": 3493,
      "åĬłå·¥": 3494,
      "åĪ¤": 3495,
      "æĺİç¡®": 3496,
      "å¸ģ": 3497,
      "Ġrese": 3498,
      "Ġmon": 3499,
      "åĽ¢éĺŁ": 3500,
      "æ£®": 3501,
      "åıįåºĶ": 3502,
      "ä½įç½®": 3503,
      "åį±": 3504,
      "éĹ»": 3505,
      "tio": 3506,
      "çĨŁ": 3507,
      "åĽłç´ł": 3508,
      ",\\\\": 3509,
      "Ġresult": 3510,
      "ĠAs": 3511,
      "ä¼´": 3512,
      "ä¸įåı¯": 3513,
      "æĸ½å·¥": 3514,
      "è¿Ľè¡ĮäºĨ": 3515,
      "Ġpho": 3516,
      "ä¸¤ç§į": 3517,
      "havi": 3518,
      "Ġstates": 3519,
      "æŃ£åľ¨": 3520,
      "Ġanaly": 3521,
      "Ġcri": 3522,
      "Ġsto": 3523,
      "éĻĪ": 3524,
      "ä¸ĥ": 3525,
      "åĬłå¼º": 3526,
      "Ġcompu": 3527,
      "Ġhi": 3528,
      "å¼¹": 3529,
      "soci": 3530,
      "æī°": 3531,
      "Ġcontin": 3532,
      "Ġge": 3533,
      "åĿĲ": 3534,
      "ĠHow": 3535,
      "Ġemp": 3536,
      "Ġ|\\": 3537,
      "41": 3538,
      "Theta": 3539,
      "trol": 3540,
      ".,": 3541,
      "Ġsha": 3542,
      "è¸": 3543,
      "Ġincre": 3544,
      "è°ĥæķ´": 3545,
      "åºŁ": 3546,
      "èĤī": 3547,
      "Ġstrong": 3548,
      "æ´¾": 3549,
      "Ġthree": 3550,
      "æľĭ": 3551,
      "çĪĨ": 3552,
      "åºĬ": 3553,
      "ink": 3554,
      "nal": 3555,
      "æľīçļĦ": 3556,
      "|\\)": 3557,
      "Ġfre": 3558,
      "åħ·ä½ĵ": 3559,
      "åĺ": 3560,
      "æ··åĲĪ": 3561,
      "è¶ĭ": 3562,
      "çīĻ": 3563,
      "det": 3564,
      "é£İéĻ©": 3565,
      "Ġspin": 3566,
      "éĺ»": 3567,
      "åĬª": 3568,
      "ç¢³": 3569,
      "å¾ª": 3570,
      "Ġnet": 3571,
      "æĻ¶": 3572,
      "Ġå¹´": 3573,
      "è¯¦": 3574,
      "Ġimpro": 3575,
      "æĽ¼": 3576,
      "æĺİæĺ¾": 3577,
      "Ġtyp": 3578,
      "56": 3579,
      "èģĶç³»": 3580,
      "æķ´ä¸ª": 3581,
      "Ġsk": 3582,
      "ix": 3583,
      "ability": 3584,
      "åĬĽçļĦ": 3585,
      "ymp": 3586,
      "59": 3587,
      "ç«ŀäºī": 3588,
      "ct": 3589,
      "mensional": 3590,
      "æ±ĩ": 3591,
      "è¿Ŀ": 3592,
      "è§ĦåĪĴ": 3593,
      "ä¸Ģæ¬¡": 3594,
      "osed": 3595,
      "kes": 3596,
      "åİħ": 3597,
      ",\\]": 3598,
      "æ¶¦": 3599,
      "åĢŁ": 3600,
      "}({\\": 3601,
      "æĭį": 3602,
      "å·¥èīº": 3603,
      "è½¯ä»¶": 3604,
      "çº¯": 3605,
      "èģĮä¸ļ": 3606,
      "ç»Łè®¡": 3607,
      "æ³ķå¾ĭ": 3608,
      "ĠHe": 3609,
      "æķĪçİĩ": 3610,
      "Ġget": 3611,
      "èĦī": 3612,
      "æ´ģ": 3613,
      "å¡ŀ": 3614,
      "è°Ī": 3615,
      "Ġwithin": 3616,
      "è£Ĥ": 3617,
      "Ġseve": 3618,
      "ĠCh": 3619,
      "ãĢĤãĢģ": 3620,
      "tur": 3621,
      "éŃ": 3622,
      "å¢Ļ": 3623,
      "appro": 3624,
      "}}=": 3625,
      "é£Łåĵģ": 3626,
      "vol": 3627,
      ")]": 3628,
      "gebra": 3629,
      "åħ³æ³¨": 3630,
      "nel": 3631,
      "Ġsug": 3632,
      "_{+": 3633,
      "åħĥç´ł": 3634,
      "Ġevery": 3635,
      "éĽ·": 3636,
      "å°¤": 3637,
      "åĳĺå·¥": 3638,
      "ject": 3639,
      "Ġinvestiga": 3640,
      ")=(": 3641,
      "éĿ¢ç§¯": 3642,
      "ç»ĦåĲĪ": 3643,
      "åıĬæĹ¶": 3644,
      "ä¸ĵå®¶": 3645,
      "Ġfollow": 3646,
      "Ġtemperature": 3647,
      "Ġdensity": 3648,
      "Ġanalysis": 3649,
      "Ġfam": 3650,
      "æİĴæĶ¾": 3651,
      "ä¸½": 3652,
      "Ġdx": 3653,
      "fy": 3654,
      "ä¸°å¯Į": 3655,
      "Ġstudi": 3656,
      "äº¤éĢļ": 3657,
      "åħħåĪĨ": 3658,
      "è¯Ĭ": 3659,
      "èį£": 3660,
      "åįĸ": 3661,
      "Ġ\\(\\|": 3662,
      "resp": 3663,
      "æĪĲç«ĭ": 3664,
      "oth": 3665,
      "tics": 3666,
      "ç¦»åŃĲ": 3667,
      "èĹı": 3668,
      "åĩĿ": 3669,
      "æ¸Ĳ": 3670,
      "Ġdue": 3671,
      "Ġknown": 3672,
      "æĳĦ": 3673,
      "Ġgroup": 3674,
      "use": 3675,
      "é¦ĸåħĪ": 3676,
      "Ġed": 3677,
      "Ġpop": 3678,
      "Ġduring": 3679,
      "-(": 3680,
      "Ġaddi": 3681,
      "éĺħ": 3682,
      "Ġcrea": 3683,
      "ame": 3684,
      "Ġver": 3685,
      "é±": 3686,
      "Ġ\\(|\\": 3687,
      "ä½Ľ": 3688,
      "åŃĶ": 3689,
      "Ġmar": 3690,
      "Ġå¤§": 3691,
      "æĿ¯": 3692,
      "ä¸ĩåħĥ": 3693,
      "ä¿Ŀéļľ": 3694,
      "è®°èĢħ": 3695,
      "ining": 3696,
      "æīįèĥ½": 3697,
      "å¤®": 3698,
      "Ġyears": 3699,
      "èļ": 3700,
      "depend": 3701,
      "è°¢": 3702,
      "æļĹ": 3703,
      "è´Ŀ": 3704,
      "ä¸ĸçºª": 3705,
      "Ġche": 3706,
      "Ġapplic": 3707,
      "å°ĺ": 3708,
      "è¯´æĺİ": 3709,
      "éľ²": 3710,
      "èį·": 3711,
      "Ġbehavi": 3712,
      "çĶŁæĢģ": 3713,
      "æĶ¹åıĺ": 3714,
      "é±¼": 3715,
      "äººæīį": 3716,
      "chan": 3717,
      "æĪĺçķ¥": 3718,
      "çļĦé«ĺ": 3719,
      "ily": 3720,
      "late": 3721,
      "}}\\\\": 3722,
      "é¢Ĩå¯¼": 3723,
      "Ġfa": 3724,
      "Ġcap": 3725,
      "Ġesti": 3726,
      "èĥŀ": 3727,
      "}\\,\\": 3728,
      "åľ£": 3729,
      "war": 3730,
      "çļĦéĹ®é¢ĺ": 3731,
      "æĪª": 3732,
      "åĪĨéĴŁ": 3733,
      "éķ¿æľŁ": 3734,
      "asi": 3735,
      "æľĭåıĭ": 3736,
      "ential": 3737,
      "redic": 3738,
      "éģį": 3739,
      "åĮ»çĸĹ": 3740,
      "èģĶåĲĪ": 3741,
      "ç§»åĬ¨": 3742,
      "100": 3743,
      "çļĦæĸ°": 3744,
      "ision": 3745,
      "ä»£æķ°": 3746,
      "79": 3747,
      "äº¦": 3748,
      "åºĨ": 3749,
      "æİ¨åĬ¨": 3750,
      "verse": 3751,
      "é«ĺçļĦ": 3752,
      "æĺł": 3753,
      "çī¹çĤ¹": 3754,
      "æ¶Ĥ": 3755,
      "ints": 3756,
      "èıĮ": 3757,
      "Ġconstruc": 3758,
      "æ°¸": 3759,
      "åĪ¶ä½ľ": 3760,
      "dim": 3761,
      "æ´Ľ": 3762,
      "ä¹ĺ": 3763,
      "Ġser": 3764,
      "Ġrepres": 3765,
      "89": 3766,
      "ä¹Ŀ": 3767,
      "å®¶åºŃ": 3768,
      "çĪ¶": 3769,
      "nges": 3770,
      "Ġafter": 3771,
      "éģ¿åħį": 3772,
      "Ġlight": 3773,
      "}=-": 3774,
      "pre": 3775,
      "ä¹ĭåīį": 3776,
      "Ġcent": 3777,
      "çŁ©éĺµ": 3778,
      "æ®Ĭ": 3779,
      "çģ¯": 3780,
      "zed": 3781,
      "åı¥": 3782,
      "nces": 3783,
      "Ġpoint": 3784,
      "Ġdoes": 3785,
      "Ġobserved": 3786,
      "æİ¥åıĹ": 3787,
      "è§Ī": 3788,
      "å¯»": 3789,
      "ä»¥æĿ¥": 3790,
      "éĽ¨": 3791,
      "ner": 3792,
      "äº¤æµģ": 3793,
      "}),": 3794,
      "Ġresearch": 3795,
      "Ġ}\\": 3796,
      "çĴ": 3797,
      "çĶ°": 3798,
      "tically": 3799,
      "mit": 3800,
      "èĤ¤": 3801,
      "äºĨä¸Ģä¸ª": 3802,
      "Ġbeing": 3803,
      "æİªæĸ½": 3804,
      "éļĲ": 3805,
      "Ġref": 3806,
      "Ġenviron": 3807,
      "æ¶Īè´¹èĢħ": 3808,
      "Ġsignificant": 3809,
      "ä¸įè¿ĩ": 3810,
      "This": 3811,
      "ucle": 3812,
      "æ¡Ĩ": 3813,
      "å¸Ń": 3814,
      "Ġocc": 3815,
      "Ġpossible": 3816,
      "åĲī": 3817,
      "ç¨ĭåº¦": 3818,
      "éĵ¶è¡Į": 3819,
      "Ġsen": 3820,
      "å¤ı": 3821,
      "Ġtop": 3822,
      "iod": 3823,
      "ç¡®ä¿Ŀ": 3824,
      ",-": 3825,
      "é²ľ": 3826,
      "çĶ¨çļĦ": 3827,
      "åĲĹ": 3828,
      "ap": 3829,
      "ded": 3830,
      "ä¾§": 3831,
      "ç´¯": 3832,
      "ç¬Ķ": 3833,
      "Ġgood": 3834,
      "æķı": 3835,
      "çĵ¦": 3836,
      "Ġtype": 3837,
      "è®¾æĸ½": 3838,
      "çĽ¸å½ĵ": 3839,
      "uri": 3840,
      "è¿Ĳè¾ĵ": 3841,
      "ris": 3842,
      "åłĤ": 3843,
      "ä¼Ĭ": 3844,
      "own": 3845,
      "è´¡": 3846,
      "æľĢç»Ī": 3847,
      "å°ļ": 3848,
      "åŁºéĩĳ": 3849,
      "å¤ªéĺ³": 3850,
      "å¸¦æĿ¥": 3851,
      "é½Ĳ": 3852,
      "çİ°è±¡": 3853,
      "ices": 3854,
      "Ġassoci": 3855,
      "ä¸¥éĩį": 3856,
      "Ġadv": 3857,
      "76": 3858,
      "ĠCon": 3859,
      "çľĭåĪ°": 3860,
      "Ġnetwork": 3861,
      "æĻ®éĢļ": 3862,
      "èħĲ": 3863,
      "Ġconsider": 3864,
      "Ġima": 3865,
      "other": 3866,
      "åĿı": 3867,
      "åģĩè®¾": 3868,
      "As": 3869,
      "åĪ¶åº¦": 3870,
      "æĹ¢": 3871,
      "ĠUni": 3872,
      "åķĨä¸ļ": 3873,
      "å®Ĺ": 3874,
      "ç³»ç»ŁçļĦ": 3875,
      "ĠAl": 3876,
      "like": 3877,
      "å·¥åħ·": 3878,
      "ertain": 3879,
      "åĬ±": 3880,
      ")_": 3881,
      "ä½įäºİ": 3882,
      "æ±¡æŁĵ": 3883,
      "Ġblo": 3884,
      "Ġprop": 3885,
      "ä¿¡åı·": 3886,
      "åĨħéĥ¨": 3887,
      "elds": 3888,
      "å½ĵåľ°": 3889,
      "vious": 3890,
      "ç»Łä¸Ģ": 3891,
      "ç«¥": 3892,
      "æ¾": 3893,
      "ä¼ĳ": 3894,
      "Ġrange": 3895,
      "æĮĳ": 3896,
      "ç»ķ": 3897,
      "èĦļ": 3898,
      "ä¿ĥè¿Ľ": 3899,
      "{{\\": 3900,
      "çĽ¸åĲĮ": 3901,
      "æº¶": 3902,
      "Ġunderstand": 3903,
      "åħ¶å®ŀ": 3904,
      "é¢ľ": 3905,
      "onal": 3906,
      "ä½ĵéªĮ": 3907,
      "dents": 3908,
      "86": 3909,
      "gram": 3910,
      "ç¼ĵ": 3911,
      "ç¦ģ": 3912,
      "è·¨": 3913,
      "çĽ®çļĦ": 3914,
      "Ġnor": 3915,
      "Ġidenti": 3916,
      "çĦ¶èĢĮ": 3917,
      "jec": 3918,
      "Ġgiven": 3919,
      "æĸ¹ç¨ĭå¼ı": 3920,
      "æķĪåºĶ": 3921,
      "åįĪ": 3922,
      "èĪŀ": 3923,
      "Ġcho": 3924,
      "èµĦéĩĳ": 3925,
      "æ¹¿": 3926,
      "éĴĪå¯¹": 3927,
      "gorith": 3928,
      "Ġlife": 3929,
      "åľĪ": 3930,
      "æķĻå¸Ī": 3931,
      "çĭ¬ç«ĭ": 3932,
      "è§ĦèĮĥ": 3933,
      "Ġincluding": 3934,
      "Ġtechn": 3935,
      "time": 3936,
      "ç©¿": 3937,
      "äºĴèģĶç½ĳ": 3938,
      "è¦": 3939,
      "çļĦå½±åĵį": 3940,
      "ç¤¼": 3941,
      "+(": 3942,
      "ç§°ä¸º": 3943,
      "æİ¨è¿Ľ": 3944,
      "Ġconn": 3945,
      "ĠOur": 3946,
      "çĽ¸æ¯Ķ": 3947,
      "ker": 3948,
      "Ġsingle": 3949,
      "çĸĳ": 3950,
      "æĽ¿": 3951,
      "éļıæľº": 3952,
      "è´¸": 3953,
      "ĠPro": 3954,
      "ä½łçļĦ": 3955,
      "ged": 3956,
      "Ġmuch": 3957,
      "mical": 3958,
      "Ġsti": 3959,
      "urther": 3960,
      "approx": 3961,
      "åĲ§": 3962,
      "divid": 3963,
      "We": 3964,
      "Ġworld": 3965,
      "ä½ĵèĤ²": 3966,
      "Ġcoup": 3967,
      "Ġconditions": 3968,
      "æĹ¥æľ¬": 3969,
      "Ġstand": 3970,
      "Ġaround": 3971,
      "è¾Ĳ": 3972,
      "Ġdistribution": 3973,
      "èĢģå¸Ī": 3974,
      "Ġflu": 3975,
      "Ġaff": 3976,
      "æİ¢æµĭ": 3977,
      "Ġobtained": 3978,
      "ä¸ĭéĻį": 3979,
      "æ¯Ľ": 3980,
      "Ġcomplex": 3981,
      "Ġoften": 3982,
      "å·®å¼Ĥ": 3983,
      "Ġtreat": 3984,
      "Ġsimple": 3985,
      "å¤§åŀĭ": 3986,
      "ç±»ä¼¼": 3987,
      "çİ¯ä¿Ŀ": 3988,
      "=-\\": 3989,
      "éģĹ": 3990,
      "Ġä»¥": 3991,
      "è¯ļ": 3992,
      "éĢĶ": 3993,
      "è¦Ĩ": 3994,
      "Ġbi": 3995,
      "Ġcurrent": 3996,
      "ä¸įè¦ģ": 3997,
      "è¡ĮæĶ¿": 3998,
      "åĬªåĬĽ": 3999,
      "æķ´ä½ĵ": 4000,
      "å±ŀäºİ": 4001,
      "Ġpredic": 4002,
      "ĠIf": 4003,
      "ses": 4004,
      "Ġbuil": 4005,
      "slant": 4006,
      "SO": 4007,
      "æ¡£": 4008,
      "æ¡¥": 4009,
      "ç£¨": 4010,
      "Ġbecause": 4011,
      "ä¼°è®¡": 4012,
      "Ġlea": 4013,
      "æ¦Ĥå¿µ": 4014,
      "ç©ºæ°Ķ": 4015,
      "emp": 4016,
      "éª¨": 4017,
      "hool": 4018,
      "éĩįè¦ģçļĦ": 4019,
      "éŁ³ä¹Ĳ": 4020,
      "Ġä¸Ĭ": 4021,
      "éĻĨ": 4022,
      "æĢİä¹Ī": 4023,
      "æĲľ": 4024,
      "åıĳæĮ¥": 4025,
      "å°ıæĹ¶": 4026,
      "éĿ¢çļĦ": 4027,
      "ä¾Ŀèµĸ": 4028,
      "åĬŀæ³ķ": 4029,
      "Ġcle": 4030,
      "æīĭæľº": 4031,
      "ption": 4032,
      "åĪº": 4033,
      "è¯Ĺ": 4034,
      "è´´": 4035,
      "é¡µ": 4036,
      "ä¸»ä¹ī": 4037,
      "è¡°": 4038,
      "èĶ": 4039,
      "åĳ¨æľŁ": 4040,
      "ative": 4041,
      "å¼ºåº¦": 4042,
      "è¿ĲèĲ¥": 4043,
      "hy": 4044,
      "å±ĭ": 4045,
      "æĿ¥è¶Ĭ": 4046,
      "mil": 4047,
      "Ġtr": 4048,
      "èĲ¨": 4049,
      "05": 4050,
      "æĽ²çº¿": 4051,
      "é©±": 4052,
      "é¹": 4053,
      "åĻ¨çļĦ": 4054,
      "net": 4055,
      "art": 4056,
      "æī©å±ķ": 4057,
      "Ġeffects": 4058,
      "è¾Ĩ": 4059,
      "Ġcomb": 4060,
      "æľºä¼ļ": 4061,
      "æĮĩæķ°": 4062,
      "ath": 4063,
      "å±ı": 4064,
      "Ġele": 4065,
      "æľĢä½³": 4066,
      "ä¸īä¸ª": 4067,
      "Ġris": 4068,
      "ffici": 4069,
      "å°±ä¼ļ": 4070,
      "åºĶå½ĵ": 4071,
      "çĸ¾çĹħ": 4072,
      "éĽª": 4073,
      "pec": 4074,
      "Ġclus": 4075,
      "æķĳ": 4076,
      "Ġ19": 4077,
      "åĲĪçĲĨ": 4078,
      "II": 4079,
      "ared": 4080,
      "Ġintro": 4081,
      "omen": 4082,
      "Ġcos": 4083,
      "åªĴä½ĵ": 4084,
      "Ġcontrol": 4085,
      "tab": 4086,
      "}=(": 4087,
      "éĥ½æľī": 4088,
      "çī¹æ®Ĭ": 4089,
      "sions": 4090,
      "Ġfood": 4091,
      "éĩįæĸ°": 4092,
      "æĬĺ": 4093,
      "æĲŃ": 4094,
      "ser": 4095,
      "èµĦæĸĻ": 4096,
      "sitive": 4097,
      "åĳĪ": 4098,
      "å¹´æĿ¥": 4099,
      "ç»Ĩèĥŀ": 4100,
      "æīĵéĢł": 4101,
      "ital": 4102,
      "èĢĹ": 4103,
      "åĮħåĲ«": 4104,
      "åİŁåŃĲ": 4105,
      "):=\\": 4106,
      "Ġgive": 4107,
      "titu": 4108,
      "å®ľ": 4109,
      "åģļå¥½": 4110,
      "Ġide": 4111,
      "ä¸¥æł¼": 4112,
      "åĨ°": 4113,
      "äºĭä»¶": 4114,
      "ympto": 4115,
      "è¶ĬæĿ¥è¶Ĭ": 4116,
      "èľ": 4117,
      "è®¾ç½®": 4118,
      "Ġlar": 4119,
      "è¡Ĺ": 4120,
      "æĴŀ": 4121,
      "åĮħè£ħ": 4122,
      "èº«ä½ĵ": 4123,
      "ä»»åĬ¡": 4124,
      "éĢĤåĲĪ": 4125,
      "å¤ľ": 4126,
      "å¹¶ä¸į": 4127,
      "æ°Ķä½ĵ": 4128,
      "èĽĭ": 4129,
      "hbar": 4130,
      "å§Ķåĳĺ": 4131,
      "çĹĽ": 4132,
      "sk": 4133,
      "olutions": 4134,
      "ä¾ĽåºĶ": 4135,
      "Ġalgorith": 4136,
      "çĽĽ": 4137,
      "æŁĲäºĽ": 4138,
      "æĶ¶åħ¥": 4139,
      "ĠThey": 4140,
      "çļĦåıĳå±ķ": 4141,
      "Ġvi": 4142,
      "çĲĨè§£": 4143,
      "Ġvis": 4144,
      "Ġtur": 4145,
      "Ġbas": 4146,
      "Ġpub": 4147,
      "åıĬåħ¶": 4148,
      "aces": 4149,
      "çĤİ": 4150,
      "Ġ,\\": 4151,
      "ented": 4152,
      "Ġterms": 4153,
      "Ġgraph": 4154,
      "Ġflow": 4155,
      "Ġcommon": 4156,
      "}}}": 4157,
      "ä»Ĭå¤©": 4158,
      "))\\": 4159,
      "ç§ģ": 4160,
      "Ġseveral": 4161,
      "Ġsugges": 4162,
      "éħĴåºĹ": 4163,
      "dered": 4164,
      "æ»¤": 4165,
      "è´¡çĮ®": 4166,
      "Ġtheore": 4167,
      "è§Ĩé¢ĳ": 4168,
      "ĠçŃī": 4169,
      "è¯¾ç¨ĭ": 4170,
      "Ġless": 4171,
      "åĿļæĮģ": 4172,
      "ä¸»é¢ĺ": 4173,
      "ĠAn": 4174,
      "çİ»": 4175,
      "å¼ķèµ·": 4176,
      "|=": 4177,
      "namics": 4178,
      "Ġemission": 4179,
      "Ġcommun": 4180,
      "æ½®": 4181,
      "Ġperiod": 4182,
      "å·Ŀ": 4183,
      "æĶ¹éĿ©": 4184,
      "tend": 4185,
      "æ³¨åĨĮ": 4186,
      "Ġindivid": 4187,
      "{-": 4188,
      "æ´ĭ": 4189,
      "æŃ£å¼ı": 4190,
      "æ³°": 4191,
      "):=": 4192,
      "æļĸ": 4193,
      "åĪĺ": 4194,
      "thing": 4195,
      "èĴĻ": 4196,
      "åħģ": 4197,
      "è¿Ļæł·çļĦ": 4198,
      "æĸ¹ä¾¿": 4199,
      "èĸĦ": 4200,
      "è¡£": 4201,
      "Ġsymme": 4202,
      "bi": 4203,
      "mod": 4204,
      "ä¼¯": 4205,
      "åĬ¨çļĦ": 4206,
      "è¯Ńè¨Ģ": 4207,
      "tle": 4208,
      "ĠTo": 4209,
      "è´¥": 4210,
      "by": 4211,
      "ero": 4212,
      "æ¢¦": 4213,
      "Ġcr": 4214,
      "æĸĹ": 4215,
      "å¹ķ": 4216,
      "gs": 4217,
      "åĲĪåĲĮ": 4218,
      "Ġperfor": 4219,
      "yc": 4220,
      "çī¹åĪ«æĺ¯": 4221,
      "Ġprob": 4222,
      "Ġeffect": 4223,
      "æµĵ": 4224,
      "è¾ĳ": 4225,
      "08": 4226,
      "åĽºå®ļ": 4227,
      "åĨľä¸ļ": 4228,
      "æĳ©": 4229,
      "Ġoff": 4230,
      "Ġfla": 4231,
      "Ġtake": 4232,
      "Ġmade": 4233,
      "åĭĴ": 4234,
      "å¤ļæķ°": 4235,
      "çĥŁ": 4236,
      "}}(\\": 4237,
      "ars": 4238,
      "åĲİçļĦ": 4239,
      "\\}.": 4240,
      "è½¨éģĵ": 4241,
      "Ġtechni": 4242,
      "åı¦å¤ĸ": 4243,
      "è¿ª": 4244,
      "å¹³è¡¡": 4245,
      "åŁ¹åħ»": 4246,
      "æĦıä¹ī": 4247,
      "Ġmeasu": 4248,
      "Ġcorre": 4249,
      "æĪĳä»¬åıĳçİ°": 4250,
      "æĿĢ": 4251,
      "è¡¨è¾¾": 4252,
      "alle": 4253,
      "èĥĮæĻ¯": 4254,
      "Ġmateri": 4255,
      "bigl": 4256,
      "bo": 4257,
      "èĻļ": 4258,
      "Ġsurface": 4259,
      "å´": 4260,
      "åįıä¼ļ": 4261,
      "æ²¿": 4262,
      "åĵ¥": 4263,
      "Ġjust": 4264,
      "umer": 4265,
      "èĪ¹": 4266,
      "è¾Ĳå°Ħ": 4267,
      "ging": 4268,
      "bigr": 4269,
      "çļĦçĶµ": 4270,
      "æ³¡": 4271,
      "æĥł": 4272,
      "åĴ¨": 4273,
      "æľ«": 4274,
      "ila": 4275,
      "sting": 4276,
      "çĥ§": 4277,
      "æħ§": 4278,
      "Ġmechan": 4279,
      "Ġshown": 4280,
      "day": 4281,
      "æĮĩå¯¼": 4282,
      "æ¶īåıĬ": 4283,
      "èĵĿ": 4284,
      "Ġexample": 4285,
      "Ġmean": 4286,
      "arm": 4287,
      "æ¯Ķå¦Ĥ": 4288,
      "çĴĥ": 4289,
      "Ġmic": 4290,
      "textrm": 4291,
      "ĠHowever": 4292,
      "CD": 4293,
      "æĹ§": 4294,
      "çĽ¸åºĶ": 4295,
      "å®£ä¼ł": 4296,
      "åįģåĪĨ": 4297,
      "ä¹Łæľī": 4298,
      "ä¿ĿéĻ©": 4299,
      "lob": 4300,
      "åİŁåĪĻ": 4301,
      "Ġ>": 4302,
      "side": 4303,
      "\\|\\": 4304,
      "æĪĳçļĦ": 4305,
      "],": 4306,
      "07": 4307,
      "\\;": 4308,
      "ç¿»": 4309,
      "åį«çĶŁ": 4310,
      "hip": 4311,
      "ik": 4312,
      "å¢¨": 4313,
      "ä¸įå¾Ĺ": 4314,
      "åĸľæ¬¢": 4315,
      "é²ģ": 4316,
      "èĢĥè¯ķ": 4317,
      "æĬ½": 4318,
      "å¯¿": 4319,
      "ä¸Ģä¸ĭ": 4320,
      "race": 4321,
      "å¤ļä¸ª": 4322,
      "ç£ģåľº": 4323,
      "ä¼ĺåĮĸ": 4324,
      "åıªæĺ¯": 4325,
      "Ġtri": 4326,
      "Ġbrea": 4327,
      "Ġvarious": 4328,
      "è£ħç½®": 4329,
      "Ġgu": 4330,
      "}}}\\": 4331,
      "èİ±": 4332,
      "åĪĽéĢł": 4333,
      ")}=": 4334,
      "Ġneu": 4335,
      "æľĿ": 4336,
      "åĴ¨è¯¢": 4337,
      "æľºåĻ¨": 4338,
      "åı«": 4339,
      "xies": 4340,
      "æİĮ": 4341,
      "å·¦åı³": 4342,
      "^{*}\\)": 4343,
      "}}.": 4344,
      "å®ĮåĸĦ": 4345,
      "å®ĥçļĦ": 4346,
      "Ġfinite": 4347,
      "ove": 4348,
      "Ġ:": 4349,
      "let": 4350,
      "igin": 4351,
      "ä¸ŃæĪĳä»¬": 4352,
      "Ġsecond": 4353,
      "ulation": 4354,
      "Ġprac": 4355,
      "Ġtimes": 4356,
      "çĽ¸äºĴä½ľçĶ¨": 4357,
      "ward": 4358,
      "ç³»æķ°": 4359,
      "ĠDe": 4360,
      "æŀĦå»º": 4361,
      "Ġher": 4362,
      "angle": 4363,
      "Ġnatural": 4364,
      "09": 4365,
      "åĢº": 4366,
      "Ġ_": 4367,
      "'_": 4368,
      "Ġwithout": 4369,
      "æ¹¾": 4370,
      "è·µ": 4371,
      "Ġwave": 4372,
      "SS": 4373,
      "å¼ĢæĶ¾": 4374,
      "åħĪè¿Ľ": 4375,
      "83": 4376,
      ")},": 4377,
      "loor": 4378,
      "åĨħçļĦ": 4379,
      "èª": 4380,
      "èĭ¦": 4381,
      "54": 4382,
      "top": 4383,
      "äº§çĶŁçļĦ": 4384,
      "Ġplay": 4385,
      "Ġgas": 4386,
      "Ġcount": 4387,
      "Ġfunctions": 4388,
      "gain": 4389,
      "å¾ªçİ¯": 4390,
      "åħ¬éĩĮ": 4391,
      "}&{": 4392,
      "åĨ¬": 4393,
      "vo": 4394,
      "Ġelectron": 4395,
      "01": 4396,
      "èĦĤ": 4397,
      "æı¡": 4398,
      "Ġalgebra": 4399,
      "read": 4400,
      "Ġä¸Ģä¸ª": 4401,
      "å²Ĺ": 4402,
      "çħ¤": 4403,
      "{|": 4404,
      "stack": 4405,
      "ç¯®": 4406,
      "è¯Ħä¼°": 4407,
      "Ġdetermin": 4408,
      "Ġlimit": 4409,
      "Ġinvol": 4410,
      "gn": 4411,
      "è¯¦ç»Ĩ": 4412,
      "çī©æµģ": 4413,
      "è½¬æį¢": 4414,
      "èĭ±åĽ½": 4415,
      "Ġown": 4416,
      "å¹¸": 4417,
      "Ġrate": 4418,
      "æĿ¥çľĭ": 4419,
      "åĪ¸": 4420,
      "æ²ī": 4421,
      "Ġdown": 4422,
      "è´¨çļĦ": 4423,
      "æĿ¥æºĲ": 4424,
      "å¦Ī": 4425,
      "é¼ĵ": 4426,
      "æŁ±": 4427,
      "Ġend": 4428,
      "Ġcorresp": 4429,
      "åįıè®®": 4430,
      "+\\,": 4431,
      "eli": 4432,
      "ern": 4433,
      "ass": 4434,
      "Ġcell": 4435,
      "åĿ¦": 4436,
      "æĪĳä»¬è¿ĺ": 4437,
      "^{(\\": 4438,
      "ç³ĸ": 4439,
      "å°Ħçº¿": 4440,
      "çĤ¹çļĦ": 4441,
      "å©ļ": 4442,
      "Ġcompon": 4443,
      "Ġapproxi": 4444,
      "çī©çļĦ": 4445,
      "unc": 4446,
      "eV": 4447,
      "ä¹±": 4448,
      "}}=\\": 4449,
      "rease": 4450,
      "èµĦäº§": 4451,
      "Ġhuman": 4452,
      "}).": 4453,
      "underline": 4454,
      "ç»´æĬ¤": 4455,
      "æļ´": 4456,
      "63": 4457,
      "Ġexplo": 4458,
      "Ġ$": 4459,
      "åĢĴ": 4460,
      "Ġvalue": 4461,
      "å¡«": 4462,
      "çªĹ": 4463,
      "åħ¬åħ±": 4464,
      "æī¾åĪ°": 4465,
      "dfrac": 4466,
      "åĩĨç¡®": 4467,
      ")\\]": 4468,
      "Ġcontain": 4469,
      "æĺ¯ä¸Ģç§į": 4470,
      "ä¼ĺç§Ģ": 4471,
      "éĩİ": 4472,
      "æĢĢ": 4473,
      "çĲĥéĺŁ": 4474,
      "éĢĴ": 4475,
      "ç»ıå¸¸": 4476,
      "53": 4477,
      "ä¸ĭçļĦ": 4478,
      "ä¹Łåı¯ä»¥": 4479,
      "ç¤¾åĮº": 4480,
      "æ¯Ķä¾ĭ": 4481,
      "çŀ": 4482,
      "Ġdri": 4483,
      "Ġstars": 4484,
      "åħģè®¸": 4485,
      "Ġsci": 4486,
      "Ġmatter": 4487,
      "çľŁæŃ£": 4488,
      "åĬŀåħ¬": 4489,
      "Ġevolution": 4490,
      "å¤ļçļĦ": 4491,
      "ocus": 4492,
      "Ġass": 4493,
      "äºĭä¸ļ": 4494,
      "è´·": 4495,
      "}^{(\\": 4496,
      "based": 4497,
      "table": 4498,
      "æµ®": 4499,
      "ç»¿èī²": 4500,
      "æ¨ª": 4501,
      "åĩłä¹İ": 4502,
      "ince": 4503,
      "çĦ¦": 4504,
      "jects": 4505,
      "ware": 4506,
      "Ġsimil": 4507,
      "Ġdeg": 4508,
      "ĠEx": 4509,
      "æİ¥è§¦": 4510,
      "sto": 4511,
      "åĩĨå¤ĩ": 4512,
      "ç¯ĩ": 4513,
      "çº¤": 4514,
      "Ġbody": 4515,
      "ticle": 4516,
      "è¿ĩåİ»": 4517,
      "ä¼łæĴŃ": 4518,
      "éĵĿ": 4519,
      "tations": 4520,
      "éĽħ": 4521,
      "Ġmust": 4522,
      "Ġam": 4523,
      "}^{*}\\)": 4524,
      "Ġhigher": 4525,
      "dependent": 4526,
      "vari": 4527,
      "Ġeffective": 4528,
      "æľīä¸Ģ": 4529,
      "çĶµå½±": 4530,
      "ST": 4531,
      "å¢ŀå¼º": 4532,
      "Ġequation": 4533,
      "æģ©": 4534,
      "å¤ļç§į": 4535,
      "æĭĵ": 4536,
      "com": 4537,
      "é¢Ĺ": 4538,
      "Ġcontribu": 4539,
      "æ³¥": 4540,
      "éĽĨä¸Ń": 4541,
      "æµª": 4542,
      "çļ®èĤ¤": 4543,
      "å¤§éĩı": 4544,
      "Ġsolutions": 4545,
      "Ġgalaxies": 4546,
      "Ġrema": 4547,
      "any": 4548,
      "é«ĺåº¦": 4549,
      "é¢ĳçİĩ": 4550,
      "è¡ĮåĬ¨": 4551,
      "å°¤åħ¶": 4552,
      "pt": 4553,
      "meric": 4554,
      "æķħäºĭ": 4555,
      "62": 4556,
      "}~": 4557,
      "æ°§åĮĸ": 4558,
      "å§Ĩ": 4559,
      "é¡ºåºı": 4560,
      "mbers": 4561,
      "åĩºæĿ¥": 4562,
      "ä»įçĦ¶": 4563,
      "çİ»çĴĥ": 4564,
      "å¿ħè¦ģ": 4565,
      "und": 4566,
      "åıĳå±ķçļĦ": 4567,
      "Ġrespon": 4568,
      "æĢ§åĴĮ": 4569,
      "æĪĲç»©": 4570,
      "Ġini": 4571,
      "åĩłä½ķ": 4572,
      "Ġassociated": 4573,
      "}}&{{": 4574,
      "æ¡Ĩæŀ¶": 4575,
      "ï¼īï¼Į": 4576,
      "Ġcertain": 4577,
      "Ġprevious": 4578,
      "Ġess": 4579,
      "èĤ¥": 4580,
      "Ġäºº": 4581,
      "ç¾İåħĥ": 4582,
      "åħ¨éĥ¨": 4583,
      "ights": 4584,
      "è¾ħ": 4585,
      "åĿĢ": 4586,
      "vity": 4587,
      "imal": 4588,
      "Ġeffici": 4589,
      "çī¹èī²": 4590,
      "Ġcaus": 4591,
      "çĳŀ": 4592,
      "Ġbefore": 4593,
      "Ġorgan": 4594,
      "èŀº": 4595,
      "stic": 4596,
      "Ġim": 4597,
      "Ġnumer": 4598,
      "52": 4599,
      "Ġfew": 4600,
      "çĲĨå¿µ": 4601,
      "ä¼¸": 4602,
      "Ġcontinu": 4603,
      "ived": 4604,
      "è´¹çĶ¨": 4605,
      "æĮĩåĩº": 4606,
      "åĪĨç¦»": 4607,
      "éĥ½ä¼ļ": 4608,
      "å¯¸": 4609,
      "è¯ķéªĮ": 4610,
      "Ġru": 4611,
      "2021": 4612,
      "æŃ£ç¡®": 4613,
      "çŁ¢": 4614,
      "æģ¢": 4615,
      "Ġfeatu": 4616,
      "Ġcare": 4617,
      "Ġabs": 4618,
      "quare": 4619,
      "æ·»": 4620,
      "çļĦå·¥ä½ľ": 4621,
      "^-": 4622,
      "å®Įæķ´": 4623,
      "ä¸Ńå¤®": 4624,
      "æī©å¤§": 4625,
      "ber": 4626,
      "åĪ·": 4627,
      "åĲ¨": 4628,
      "æ¶¨": 4629,
      "åıªè¦ģ": 4630,
      "å°ıçļĦ": 4631,
      "æľĹ": 4632,
      "é©¾": 4633,
      "æ¸¡": 4634,
      "ea": 4635,
      "Ġinclude": 4636,
      "åĻª": 4637,
      "éī": 4638,
      "istent": 4639,
      "Ġ\\\\\\": 4640,
      "Ġregion": 4641,
      "å¹¿åĳĬ": 4642,
      "éī´": 4643,
      "Ġparameters": 4644,
      "éĽĦ": 4645,
      "èĩªèº«": 4646,
      "æĸĳ": 4647,
      "Ġserv": 4648,
      "å¦ĤæŃ¤": 4649,
      "æİ¨å¹¿": 4650,
      "Ġ\\\\&": 4651,
      "Ġexis": 4652,
      "èĳ£": 4653,
      "ries": 4654,
      "æł·çļĦ": 4655,
      "idence": 4656,
      "lin": 4657,
      "Ġread": 4658,
      "æ²Ł": 4659,
      "è§Ĵåº¦": 4660,
      "non": 4661,
      "Ġshe": 4662,
      "çĶŁåĳ½": 4663,
      "ç²ĺ": 4664,
      "ĠCo": 4665,
      "Ġnear": 4666,
      "ç²¾ç¡®": 4667,
      "èģĺ": 4668,
      "Ġfree": 4669,
      "æķ°åŃ¦": 4670,
      "æ¢ħ": 4671,
      "åĬĽéĩı": 4672,
      "è¿·": 4673,
      "Ġindic": 4674,
      "}>": 4675,
      "tfrac": 4676,
      "lue": 4677,
      "è·ĳ": 4678,
      "Ġ(-": 4679,
      "å¹³æĸ¹": 4680,
      "è£ģ": 4681,
      "stant": 4682,
      "çĶµæ±ł": 4683,
      "floor": 4684,
      "äºĭå®ŀ": 4685,
      "çļĦæĸ¹æ³ķ": 4686,
      "æľīäºĽ": 4687,
      "Ġblack": 4688,
      "ĠLa": 4689,
      "å½ĵåīį": 4690,
      "çĹĩçĬ¶": 4691,
      "84": 4692,
      "åĪĨä¸º": 4693,
      "åĬłåħ¥": 4694,
      "orph": 4695,
      "74": 4696,
      "èĤ¯": 4697,
      "åĩłä¸ª": 4698,
      "çļĦç»ĵæŀľ": 4699,
      "tein": 4700,
      "æģ¢å¤į": 4701,
      "%ï¼Į": 4702,
      "è°·": 4703,
      "tt": 4704,
      "åĲ¸å¼ķ": 4705,
      "Ġfo": 4706,
      "Ġexpla": 4707,
      "Ġtransition": 4708,
      "_*": 4709,
      "ws": 4710,
      "Ġnucle": 4711,
      "Ġ.\\)": 4712,
      "Ġissu": 4713,
      "51": 4714,
      "}&": 4715,
      "Ġmedi": 4716,
      "ression": 4717,
      "åĬ³åĬ¨": 4718,
      "åķĨåĵģ": 4719,
      "åĪĨç±»": 4720,
      "ä¼Ļ": 4721,
      "Ġphysical": 4722,
      "Ġoccur": 4723,
      "çļĦè¯Ŀ": 4724,
      "ç§ĺ": 4725,
      "Ġchange": 4726,
      "ãĢĢ": 4727,
      "73": 4728,
      "61": 4729,
      "åĳ¼": 4730,
      "Ġ^{": 4731,
      "inc": 4732,
      "æĬĵ": 4733,
      "ä¹Łä¸į": 4734,
      "Ġmil": 4735,
      "loy": 4736,
      "Ġdemon": 4737,
      "Ġfields": 4738,
      "((": 4739,
      "}:": 4740,
      "}_\\": 4741,
      "Ġbest": 4742,
      "æŀĦæĪĲ": 4743,
      "åħ¬å¼Ģ": 4744,
      "Ġdesign": 4745,
      "æ¬§æ´²": 4746,
      "bed": 4747,
      "è¦ĨçĽĸ": 4748,
      "mples": 4749,
      "éħįç½®": 4750,
      "çļĦä¸į": 4751,
      "æĮ¯åĬ¨": 4752,
      "72": 4753,
      "trum": 4754,
      "æĸĩç«ł": 4755,
      "çļĩ": 4756,
      "èī¯å¥½çļĦ": 4757,
      "Ġå°Ĩ": 4758,
      "çģ°": 4759,
      "lass": 4760,
      "äºĭæĥħ": 4761,
      "nk": 4762,
      "It": 4763,
      "way": 4764,
      "llar": 4765,
      "çĺ": 4766,
      "çº·": 4767,
      "è´«": 4768,
      "å¼ķåħ¥": 4769,
      "Ġadd": 4770,
      "çĬ¯": 4771,
      "çĶŁæĪĲ": 4772,
      "ä»»æĦı": 4773,
      "triangle": 4774,
      "éĩįå¤§": 4775,
      "ĠMa": 4776,
      "ates": 4777,
      "èªī": 4778,
      "Ġdise": 4779,
      "ç¢°": 4780,
      "ati": 4781,
      "å°¾": 4782,
      "vent": 4783,
      "è¿ħ": 4784,
      "rid": 4785,
      "Ġmana": 4786,
      "æİī": 4787,
      "èĲ½å®ŀ": 4788,
      "Ġopera": 4789,
      "é¢ľèī²": 4790,
      "èµ¢": 4791,
      "Ġé«ĺ": 4792,
      "æ¯ķä¸ļ": 4793,
      "vaila": 4794,
      "Ġstudents": 4795,
      "Ġer": 4796,
      "Ġorigin": 4797,
      "åįĩçº§": 4798,
      "Ġhand": 4799,
      "ç¬ĳ": 4800,
      "æİ¢ç´¢": 4801,
      "Ġopti": 4802,
      "els": 4803,
      "èļĢ": 4804,
      "04": 4805,
      "è´Ńä¹°": 4806,
      "±ä¹Ĳ": 4807,
      "æľ¬åľ°": 4808,
      "/(": 4809,
      "}\\|": 4810,
      "ä¹Ļ": 4811,
      "çº¹": 4812,
      "å°½ç®¡": 4813,
      "åĲ¸æĶ¶": 4814,
      "tific": 4815,
      "Ġsize": 4816,
      "åħīåŃ¦": 4817,
      "with": 4818,
      "xx": 4819,
      "ned": 4820,
      "åı¦ä¸Ģ": 4821,
      "mum": 4822,
      "èĴ¸": 4823,
      "çļĦéĩįè¦ģ": 4824,
      "Ġagain": 4825,
      "æĦıè§ģ": 4826,
      "Ġå¹¶": 4827,
      "ä»£çłģ": 4828,
      "Ġbene": 4829,
      "Ġrole": 4830,
      "Ġchildren": 4831,
      "Ġsolution": 4832,
      "ection": 4833,
      "Ġdirect": 4834,
      "æ¦Ĥçİĩ": 4835,
      "è¶ĭåĬ¿": 4836,
      "æī¬": 4837,
      "æľĢé«ĺ": 4838,
      "Ġsimilar": 4839,
      "Ġproblems": 4840,
      "å¸Ŀ": 4841,
      "ä¹Łä¼ļ": 4842,
      "å¹´æľĪæĹ¥": 4843,
      "Ġlower": 4844,
      "Ġspecific": 4845,
      "æ¬¢è¿İ": 4846,
      "æİ¥è¿ĳ": 4847,
      "çļĦä¸Ģä¸ª": 4848,
      "Ġformu": 4849,
      "Ġè¿Ļ": 4850,
      "ç¹": 4851,
      "æģ¶": 4852,
      "02": 4853,
      "ency": 4854,
      "Ġequations": 4855,
      "bigcup": 4856,
      "tre": 4857,
      "å¿ĥçĲĨ": 4858,
      "å¹´åº¦": 4859,
      "ç¹ģ": 4860,
      "é¾Ħ": 4861,
      "ç½ļ": 4862,
      "ids": 4863,
      "Ġbra": 4864,
      "æ¯«": 4865,
      "chie": 4866,
      "view": 4867,
      "Ġques": 4868,
      "åħ¼": 4869,
      "(-\\": 4870,
      "',": 4871,
      "03": 4872,
      "æĹ¶æľŁ": 4873,
      "}=-\\": 4874,
      "æĥ¯": 4875,
      "94": 4876,
      "ç½²": 4877,
      "Ġprove": 4878,
      "åį·": 4879,
      "æĻºæħ§": 4880,
      "å®ŀè·µ": 4881,
      "ils": 4882,
      "Ġlinear": 4883,
      "Ġtool": 4884,
      "Ġnec": 4885,
      "éĶĪ": 4886,
      "èĲ¥éĶĢ": 4887,
      "è§īå¾Ĺ": 4888,
      "Ġcharacter": 4889,
      "æĦıåĳ³": 4890,
      "iness": 4891,
      "åĶ¯": 4892,
      "æĪĲæŀľ": 4893,
      "éº¦": 4894,
      "çİī": 4895,
      "çļĦæĹ¶éĹ´": 4896,
      "Ġopen": 4897,
      "çļĦä¸»è¦ģ": 4898,
      "åıī": 4899,
      "éĤ®": 4900,
      "Ġmight": 4901,
      "ming": 4902,
      "dz": 4903,
      "Ġobservations": 4904,
      "Ġsource": 4905,
      "å®īæİĴ": 4906,
      "æĹłè®º": 4907,
      "è¿¹": 4908,
      "pose": 4909,
      "æĳĺ": 4910,
      "æĪĳä»¬åľ¨": 4911,
      "æĻ®éģį": 4912,
      "ndom": 4913,
      "èĢ³": 4914,
      "06": 4915,
      "åŁĥ": 4916,
      "ques": 4917,
      "sed": 4918,
      "Ġself": 4919,
      "Ġbetter": 4920,
      "æĲľç´¢": 4921,
      "Ġsupport": 4922,
      "æĿ¨": 4923,
      "matic": 4924,
      ")=-": 4925,
      "Ġwri": 4926,
      "ĠBy": 4927,
      "gu": 4928,
      "Ġfocus": 4929,
      "Ġaccu": 4930,
      "Ġcorrec": 4931,
      "åĲĮæ¯Ķ": 4932,
      "AP": 4933,
      "Ġpr": 4934,
      "çĲĨæĥ³": 4935,
      "é©¶": 4936,
      "æ·±åħ¥": 4937,
      "Ġdeta": 4938,
      "æĤī": 4939,
      "æĩ": 4940,
      "æĦŁè§ī": 4941,
      "ä¸ĭæĿ¥": 4942,
      "åŃĲçļĦ": 4943,
      "æľ¬æ¬¡": 4944,
      "åĪĨè§£": 4945,
      "oint": 4946,
      "éĢļçŁ¥": 4947,
      "äº§åĵģçļĦ": 4948,
      "è°ĵ": 4949,
      "åį³ä½¿": 4950,
      "93": 4951,
      "çľŁå®ŀ": 4952,
      "æĹ¶çļĦ": 4953,
      "åĴĮçļĦ": 4954,
      "Ġcritical": 4955,
      "ä½¿å¾Ĺ": 4956,
      "_-": 4957,
      "Ġstre": 4958,
      "cent": 4959,
      "éĿ¢å¯¹": 4960,
      "æĹĹ": 4961,
      "èĢĮè¨Ģ": 4962,
      "Ġfour": 4963,
      "éĢĤåºĶ": 4964,
      "è¾¨": 4965,
      "Ġcomplete": 4966,
      "ç»ĺ": 4967,
      "2020": 4968,
      "map": 4969,
      "71": 4970,
      "Ġlik": 4971,
      "Ġavaila": 4972,
      "æĸ°éĹ»": 4973,
      ")(\\": 4974,
      "åĪĽä¸ļ": 4975,
      "no": 4976,
      "èµĽåŃ£": 4977,
      "rs": 4978,
      "Ġve": 4979,
      "ä¾µ": 4980,
      "inter": 4981,
      "çĽĳçĿ£": 4982,
      "å½ĵçĦ¶": 4983,
      "Ġbehavior": 4984,
      "åħ·å¤ĩ": 4985,
      "éĻ·": 4986,
      "Ġnow": 4987,
      "nor": 4988,
      "Ġrecent": 4989,
      "land": 4990,
      "}.}\\": 4991,
      "ç§ĭ": 4992,
      "dro": 4993,
      "åĵģè´¨": 4994,
      "åĵªäºĽ": 4995,
      "åĪ¶å®ļ": 4996,
      "è®°å½ķ": 4997,
      "Ġstill": 4998,
      "Ġoperator": 4999,
      "è´¦": 5000,
      "éŁ©": 5001,
      "ĠYou": 5002,
      "AR": 5003,
      "82": 5004,
      "Ġdev": 5005,
      "Ġmeans": 5006,
      "çĽĲ": 5007,
      "ĠAd": 5008,
      "å¥ĭ": 5009,
      "æĦıè¯Ĩ": 5010,
      "æĥĬ": 5011,
      "Ġconstra": 5012,
      "Ġmethods": 5013,
      ")>": 5014,
      "Ġvalues": 5015,
      "asing": 5016,
      "order": 5017,
      "ĠSta": 5018,
      "åŁºåľ°": 5019,
      "Ġschool": 5020,
      ")!": 5021,
      "Ġdimension": 5022,
      "å£ģ": 5023,
      "ĠAmeric": 5024,
      "Ġdra": 5025,
      "Ġfer": 5026,
      "ĠInd": 5027,
      "Ġachie": 5028,
      ")}.": 5029,
      "lying": 5030,
      "GL": 5031,
      "è¿Ķ": 5032,
      "Ġcalled": 5033,
      "Ġdynamics": 5034,
      "ities": 5035,
      "ĠSo": 5036,
      "Ġåľ°": 5037,
      "åı¬": 5038,
      "Ġbro": 5039,
      "Ġweak": 5040,
      "ult": 5041,
      "mong": 5042,
      "Ġ12": 5043,
      "Ġsaid": 5044,
      "ii": 5045,
      "ef": 5046,
      "lies": 5047,
      "Ġglob": 5048,
      "äººåı£": 5049,
      "èµĦæł¼": 5050,
      "ccess": 5051,
      "sec": 5052,
      "comp": 5053,
      "Ġformation": 5054,
      "æĶ¹åĸĦ": 5055,
      "92": 5056,
      "Ġday": 5057,
      "éĢĤå½ĵ": 5058,
      "æľºçļĦ": 5059,
      "æĬµ": 5060,
      "ä¸»ä»»": 5061,
      "scop": 5062,
      "ls": 5063,
      "ä¸įå°ĳ": 5064,
      "che": 5065,
      "çģ¾": 5066,
      "åºıåĪĹ": 5067,
      "cccc": 5068,
      "æĦıåĳ³çĿĢ": 5069,
      "Ġmis": 5070,
      "ĠSu": 5071,
      "ç»ĵæĿŁ": 5072,
      "Ġeduc": 5073,
      "åľ³": 5074,
      "ä¸¾åĬŀ": 5075,
      "Ġcases": 5076,
      "~\\": 5077,
      "æ¨¡åŀĭçļĦ": 5078,
      "æĮĳæĪĺ": 5079,
      "linear": 5080,
      "lay": 5081,
      "Ġpur": 5082,
      "ĠThere": 5083,
      "--": 5084,
      "')": 5085,
      "Ġopp": 5086,
      "Ġreduc": 5087,
      "çļĦå°ı": 5088,
      "AC": 5089,
      "ilities": 5090,
      "ç½ª": 5091,
      "çģŃ": 5092,
      "eed": 5093,
      "Ġrele": 5094,
      "ç¢İ": 5095,
      "Ġimprove": 5096,
      "tational": 5097,
      "äºĴåĬ¨": 5098,
      "versity": 5099,
      "Ġbecome": 5100,
      "å¤Ħäºİ": 5101,
      "æĶ¿æ²»": 5102,
      "Ġprotec": 5103,
      "ä¸ºä¸»": 5104,
      "Ġet": 5105,
      "éĵľ": 5106,
      "AB": 5107,
      "èĢħçļĦ": 5108,
      "ways": 5109,
      "Ġphoto": 5110,
      "æł·æľ¬": 5111,
      "éĩĩåıĸ": 5112,
      "81": 5113,
      "èŀįåĲĪ": 5114,
      "ç´«": 5115,
      "å§Ķåĳĺä¼ļ": 5116,
      "tom": 5117,
      "æ¥ļ": 5118,
      "åıĺéĩı": 5119,
      "èİ«": 5120,
      "Ġmas": 5121,
      "Ġear": 5122,
      "çĽ¸åħ³çļĦ": 5123,
      "Ġpi": 5124,
      "Ġhal": 5125,
      "è®¤è¯ģ": 5126,
      "Ġplan": 5127,
      "ä»İäºĭ": 5128,
      "æĹłçº¿": 5129,
      "ä¸ģ": 5130,
      "tural": 5131,
      "Ġsources": 5132,
      "Ġmaxi": 5133,
      "orts": 5134,
      "AS": 5135,
      "æ³ķåĽ½": 5136,
      "æ®ĭ": 5137,
      "æ©": 5138,
      "Ġrelations": 5139,
      "åģ¿": 5140,
      "çĦĬ": 5141,
      "æĥ³è¦ģ": 5142,
      "^{*}": 5143,
      "Ġgeneraliz": 5144,
      "ä¸¾è¡Į": 5145,
      "tablish": 5146,
      "è´¯": 5147,
      "æ´¥": 5148,
      "vee": 5149,
      "åĦ¿ç«¥": 5150,
      "è¯ģæį®": 5151,
      "äººç±»": 5152,
      "Ġdt": 5153,
      "ken": 5154,
      "åĽ°éļ¾": 5155,
      "ording": 5156,
      "ä»¥åīį": 5157,
      "å®«": 5158,
      "æ·±åľ³": 5159,
      "box": 5160,
      "æ¾³": 5161,
      "éĻĦè¿ĳ": 5162,
      "91": 5163,
      "é¢Ħè®¡": 5164,
      "IC": 5165,
      "è§ĦåĪĻ": 5166,
      "ost": 5167,
      "æŃ¤æ¬¡": 5168,
      "Ġspectrum": 5169,
      "elec": 5170,
      "èµ«": 5171,
      "Ġallows": 5172,
      "jk": 5173,
      "åı¯éĿł": 5174,
      "ED": 5175,
      "gg": 5176,
      "tual": 5177,
      "Ġframe": 5178,
      "mm": 5179,
      "Ġrisk": 5180,
      "éľĩ": 5181,
      "ee": 5182,
      "è¯¸": 5183,
      "tence": 5184,
      "éĶģ": 5185,
      "åĪĨäº«": 5186,
      "].": 5187,
      "Ġmus": 5188,
      "Ġextend": 5189,
      "Ġconstant": 5190,
      "Ġlat": 5191,
      "Ġlearning": 5192,
      "Ġ\\({": 5193,
      "Ġel": 5194,
      "}[\\": 5195,
      "æĪĲåĳĺ": 5196,
      "Ġfrequen": 5197,
      "æĹ¥å¸¸": 5198,
      "ont": 5199,
      "Ġsocial": 5200,
      "Ġcorrespon": 5201,
      "éĢĤçĶ¨äºİ": 5202,
      "çĶµè§Ĩ": 5203,
      "çĤī": 5204,
      "};": 5205,
      "Ġcross": 5206,
      "ables": 5207,
      "å¼ĥ": 5208,
      "åĢ¾": 5209,
      "æĢĿæĥ³": 5210,
      "åħ¬å¼ı": 5211,
      "å²©": 5212,
      "medi": 5213,
      "rated": 5214,
      "èĬ¯": 5215,
      "mapsto": 5216,
      "æĬķåħ¥": 5217,
      "ç»ıçĲĨ": 5218,
      "ills": 5219,
      "åľ¨çº¿": 5220,
      "åıĤèĢĥ": 5221,
      "Ġfamily": 5222,
      "æ¢ģ": 5223,
      "æľ¬èº«": 5224,
      "çļĦæĸ¹å¼ı": 5225,
      "Ġhere": 5226,
      "åĩºåı£": 5227,
      "ching": 5228,
      "Ġfil": 5229,
      "}(-": 5230,
      "åıĸåĨ³": 5231,
      "Ġmicro": 5232,
      "æĿ°": 5233,
      "Ġrandom": 5234,
      "æį·": 5235,
      "ER": 5236,
      "çĲĥåĳĺ": 5237,
      "çļĦæĥħåĨµ": 5238,
      "Ġgeome": 5239,
      "ä¸ľè¥¿": 5240,
      "å¾·åĽ½": 5241,
      "))=": 5242,
      "å°±åı¯ä»¥": 5243,
      "ched": 5244,
      "Ġä¸ª": 5245,
      "jor": 5246,
      "light": 5247,
      "æĿĨ": 5248,
      "Ġcul": 5249,
      "Ġind": 5250,
      "åı¯èĥ½ä¼ļ": 5251,
      "Ġplace": 5252,
      "å¹¼": 5253,
      "Ġlu": 5254,
      "ä¼ģä¸ļçļĦ": 5255,
      "èĪĴ": 5256,
      "ä¸Ĭå¸Ĥ": 5257,
      "Ġdevelopment": 5258,
      "Ġdark": 5259,
      "cou": 5260,
      "åħ±æĮ¯": 5261,
      "å¹´è½»": 5262,
      "æıĴ": 5263,
      "!\\": 5264,
      "inite": 5265,
      "éĢĲæ¸Ĳ": 5266,
      "ngu": 5267,
      "æľºåħ³": 5268,
      "Ġspecial": 5269,
      "èĭĹ": 5270,
      "è¿ĳä¼¼": 5271,
      "æĪĲéķ¿": 5272,
      "ä¿Ħ": 5273,
      "ited": 5274,
      "å·§": 5275,
      "å¥¶": 5276,
      ";\\;": 5277,
      "Ġable": 5278,
      "é£İæł¼": 5279,
      "Ġestima": 5280,
      "å¹³éĿ¢": 5281,
      "Ġkey": 5282,
      "çĽĳç®¡": 5283,
      "å½»": 5284,
      "ino": 5285,
      "èĢĮæĺ¯": 5286,
      "å¤§å°ı": 5287,
      "å£³": 5288,
      "Ġanti": 5289,
      "Ġwhe": 5290,
      "Ġparameter": 5291,
      "çĽĳæµĭ": 5292,
      "mn": 5293,
      "thers": 5294,
      "äººå·¥": 5295,
      "Ġprin": 5296,
      "Ġ\\(\\|\\": 5297,
      "æ¤įçī©": 5298,
      "nnel": 5299,
      "åħ¬åı¸çļĦ": 5300,
      "Ġhome": 5301,
      "Ġsus": 5302,
      "iota": 5303,
      "Ġå¤ļ": 5304,
      "Ġinteraction": 5305,
      "å¾Īå¤§": 5306,
      "çĶŁçļĦ": 5307,
      "è¾¹çķĮ": 5308,
      "Ġearly": 5309,
      "xt": 5310,
      "overn": 5311,
      "lied": 5312,
      "Ġrelated": 5313,
      "åıĸåĨ³äºİ": 5314,
      "åĬłéĢŁ": 5315,
      "ths": 5316,
      "Ġalong": 5317,
      "Ġåı¯ä»¥": 5318,
      "]\\\\": 5319,
      "ime": 5320,
      "rees": 5321,
      "è¯ĳ": 5322,
      "ida": 5323,
      "åī²": 5324,
      "éĶħ": 5325,
      "Ġgroups": 5326,
      "åıĺå¼Ĥ": 5327,
      "æµģç¨ĭ": 5328,
      "çĭ¬çī¹": 5329,
      "inary": 5330,
      "Ġmolec": 5331,
      "Ġmix": 5332,
      "åŀĭçļĦ": 5333,
      "æ¢¯": 5334,
      "åĶ±": 5335,
      "âĢ": 5336,
      "åħīåº¦": 5337,
      "zation": 5338,
      "If": 5339,
      "ä¿®æĶ¹": 5340,
      "Ġbus": 5341,
      "ĠåĪ°": 5342,
      "tern": 5343,
      "ä»¤äºº": 5344,
      "è¿ĩæ¸¡": 5345,
      "éĨĴ": 5346,
      "Ġpair": 5347,
      "Ġfuture": 5348,
      "å¾Ģå¾Ģ": 5349,
      "Ġmy": 5350,
      "Ġright": 5351,
      "What": 5352,
      "æı´": 5353,
      "è¯Ħä»·": 5354,
      "è¿ĲçĶ¨": 5355,
      "çĶµè¯Ŀ": 5356,
      "åĲĮåŃ¦": 5357,
      "%ãĢĤ": 5358,
      "è±Ĩ": 5359,
      "éº»": 5360,
      "wh": 5361,
      "ä¹ĭå¤ĸ": 5362,
      "Ġtransp": 5363,
      "ç®ĢåįķçļĦ": 5364,
      "æĶ¯ä»ĺ": 5365,
      "æ³µ": 5366,
      "åĽ¾åĥı": 5367,
      "Ġchalle": 5368,
      "è·³": 5369,
      "æ¸ł": 5370,
      "Ġcollec": 5371,
      "Ġconsidered": 5372,
      "å¤§åĪ©": 5373,
      "erence": 5374,
      "Ġavailable": 5375,
      "çº¤ç»´": 5376,
      "éĺ´": 5377,
      "ä¼łè¾ĵ": 5378,
      "Ġaddition": 5379,
      "åĨįæ¬¡": 5380,
      "ãĢģãĢģ": 5381,
      "æķĻæİĪ": 5382,
      "åĭĩ": 5383,
      "How": 5384,
      "ä»ĸä»¬çļĦ": 5385,
      "åľŁåľ°": 5386,
      "Ġcli": 5387,
      "è¿ģ": 5388,
      "èĤ¡ä»½": 5389,
      "åįķä¸Ģ": 5390,
      "çĶµåĬ¨": 5391,
      "ĠGa": 5392,
      "éĶĻè¯¯": 5393,
      "åľ¨è¿Ļ": 5394,
      "magnetic": 5395,
      "ç«Ł": 5396,
      "ĠSp": 5397,
      "å±ķå¼Ģ": 5398,
      "IR": 5399,
      "\\}\\": 5400,
      "igu": 5401,
      "Ġprof": 5402,
      "å¸¸è§ģ": 5403,
      "nif": 5404,
      "Ġestablish": 5405,
      "Fe": 5406,
      "Ġvel": 5407,
      "æĮĤ": 5408,
      "æĮĩæłĩ": 5409,
      "Ġunc": 5410,
      "çĶ¨æĿ¥": 5411,
      "çİ°å®ŀ": 5412,
      "pto": 5413,
      "åİĤå®¶": 5414,
      "æ¼ı": 5415,
      "æ¼«": 5416,
      "Ġintere": 5417,
      "verage": 5418,
      "Ġrequire": 5419,
      "ev": 5420,
      "æ®ĸ": 5421,
      "Ġessential": 5422,
      "é«ĺæķĪ": 5423,
      "Ġstandard": 5424,
      "^*(": 5425,
      "Ġprovides": 5426,
      "ket": 5427,
      "ä»¥åĲİ": 5428,
      "PS": 5429,
      "ä¼Ł": 5430,
      "Ġexc": 5431,
      "mine": 5432,
      "Ġarea": 5433,
      "é¢ĦæľŁ": 5434,
      "ouse": 5435,
      "æ¯ıå¤©": 5436,
      "è½¦è¾Ĩ": 5437,
      "ç¡ħ": 5438,
      "åħ´è¶£": 5439,
      "æĹ©æľŁ": 5440,
      "rateg": 5441,
      "Ġfrac": 5442,
      "åħµ": 5443,
      "æĬ¥åĲį": 5444,
      "è®¤è¯Ĩ": 5445,
      "Ġlay": 5446,
      "Ġproduction": 5447,
      "Ġproposed": 5448,
      "ground": 5449,
      "åĮ¹": 5450,
      "Ġtypes": 5451,
      "çĽ¸ä¿¡": 5452,
      "ä½¿çĶ¨çļĦ": 5453,
      "åıªèĥ½": 5454,
      "åħ¬å¸ĥ": 5455,
      "æįŁå¤±": 5456,
      "Ġoptical": 5457,
      "è¿ħéĢŁ": 5458,
      "})(": 5459,
      "éĺ²æŃ¢": 5460,
      "èĻ«": 5461,
      "æĬĢèĥ½": 5462,
      "æľīæľº": 5463,
      ")}}": 5464,
      "Ġtest": 5465,
      "Ġï¼ļ": 5466,
      "turb": 5467,
      "ini": 5468,
      "æĽ´å¥½": 5469,
      "é»ĺ": 5470,
      "333": 5471,
      "é¥Ń": 5472,
      "aring": 5473,
      "é¦Ļæ¸¯": 5474,
      "å±ķç¤ºäºĨ": 5475,
      "Ġmoment": 5476,
      "åıł": 5477,
      "åĲİæĿ¥": 5478,
      "ason": 5479,
      "åģļåĪ°": 5480,
      "entation": 5481,
      "Ġsho": 5482,
      "ä½ľèĢħ": 5483,
      "Ġsepa": 5484,
      "éģĵè·¯": 5485,
      "Ġincrease": 5486,
      "conduc": 5487,
      "ĠæĪĳ": 5488,
      "Ġimpact": 5489,
      "Ġscale": 5490,
      "Ġcondition": 5491,
      "èµĦæľ¬": 5492,
      "ially": 5493,
      "ĠAnd": 5494,
      "pper": 5495,
      "Ġalgorithm": 5496,
      "æĸ¹éĿ¢çļĦ": 5497,
      "ä¹Į": 5498,
      "'\\": 5499,
      "åİĭç¼©": 5500,
      "è®¡ç®Ĺæľº": 5501,
      "çĬ¶åĨµ": 5502,
      "å½ĵæĹ¶": 5503,
      "Ġfactor": 5504,
      "Ġenha": 5505,
      "Ġair": 5506,
      "çļĦä¸Ń": 5507,
      "çļĦæĥħåĨµä¸ĭ": 5508,
      "æľīæīĢ": 5509,
      "ellow": 5510,
      "å¯¿åĳ½": 5511,
      "her": 5512,
      "Ġinitial": 5513,
      "ç¬¬ä¸Ģä¸ª": 5514,
      "ither": 5515,
      "uge": 5516,
      "åĲĦç±»": 5517,
      "æļĤ": 5518,
      "Ġenvironment": 5519,
      "most": 5520,
      "conom": 5521,
      "Ġshort": 5522,
      "çŁ¢éĩı": 5523,
      "}\\;": 5524,
      "hift": 5525,
      "åıĮæĸ¹": 5526,
      "Ġmeasurements": 5527,
      "åı¤åħ¸": 5528,
      "ä¼į": 5529,
      "Ġgrowth": 5530,
      "Ġä¹Ł": 5531,
      "ä¸ºä»Ģä¹Ī": 5532,
      "Ġ'": 5533,
      "åĲĮæł·": 5534,
      "ç§ĳçłĶ": 5535,
      "that": 5536,
      "luc": 5537,
      "ĠRes": 5538,
      "\\!\\!": 5539,
      "æĶ¹è¿Ľ": 5540,
      "ury": 5541,
      "Ġäºİ": 5542,
      "ĠèĢĮ": 5543,
      "Ġselec": 5544,
      ")}_{": 5545,
      "=\\,": 5546,
      "æĹłéĻĲ": 5547,
      "éģŃ": 5548,
      "Al": 5549,
      "èİ·åıĸ": 5550,
      "ä¸Ģå¹´": 5551,
      "æĺ¯çĶ±": 5552,
      "ĠWhen": 5553,
      "çıł": 5554,
      "tage": 5555,
      "èĩ³å°ĳ": 5556,
      "Ġfurther": 5557,
      "æ¡Īä¾ĭ": 5558,
      "Ġcause": 5559,
      "åĬ¨çī©": 5560,
      "æĪĲåĪĨ": 5561,
      "}={\\": 5562,
      "ĠXray": 5563,
      "å¤§å¤§": 5564,
      "itude": 5565,
      "}}^{\\": 5566,
      "çº³ç±³": 5567,
      "Ġprocesses": 5568,
      "AT": 5569,
      "æī¶": 5570,
      "cks": 5571,
      "æľīä¸Ģä¸ª": 5572,
      "Ġregular": 5573,
      "([": 5574,
      "æĪ´": 5575,
      "ying": 5576,
      "}<": 5577,
      "Ġthough": 5578,
      "åĩŃ": 5579,
      "å¹¿å·ŀ": 5580,
      "åĢ¼å¾Ĺ": 5581,
      "è´¸æĺĵ": 5582,
      "éĢļä¿¡": 5583,
      "èµŀ": 5584,
      "ç»ıåİĨ": 5585,
      "æ¨¡åĿĹ": 5586,
      "tices": 5587,
      "ud": 5588,
      "Ġgreat": 5589,
      "Ġusu": 5590,
      "Ġinvestigate": 5591,
      "empty": 5592,
      "sian": 5593,
      "mance": 5594,
      "éļĨ": 5595,
      "Ġpati": 5596,
      "çĵ¶": 5597,
      "raph": 5598,
      "èĴĤ": 5599,
      "å°ºå¯¸": 5600,
      "å¡ĳæĸĻ": 5601,
      "åĳĬè¯ī": 5602,
      "rable": 5603,
      "Ġprogram": 5604,
      "å®¿": 5605,
      "Ġill": 5606,
      "temp": 5607,
      "ĠNew": 5608,
      "å¤§éĥ¨åĪĨ": 5609,
      "åĬŁçİĩ": 5610,
      "è°ģ": 5611,
      "å¼ºè°ĥ": 5612,
      "èĳ£äºĭ": 5613,
      "æ³¢åĬ¨": 5614,
      "Ġmaking": 5615,
      "éģµ": 5616,
      "è®Ńç»ĥ": 5617,
      "å°±ä¸ļ": 5618,
      "\\|\\)": 5619,
      "ä»ĵ": 5620,
      "Ġlangu": 5621,
      "Ġauth": 5622,
      "Ġabove": 5623,
      "emptyset": 5624,
      "çĤ¼": 5625,
      "åıĺå¾Ĺ": 5626,
      "Ġassu": 5627,
      "Ġground": 5628,
      "Ġconduc": 5629,
      "CO": 5630,
      "Ġamong": 5631,
      "åİ»å¹´": 5632,
      "ä¸įè¶³": 5633,
      "è¢ĭ": 5634,
      "æķ°çļĦ": 5635,
      "æİĴåĲį": 5636,
      "type": 5637,
      "Ġtreatment": 5638,
      "variant": 5639,
      "æ½ľåĬĽ": 5640,
      "}.\\]": 5641,
      "})_{": 5642,
      "Ġhard": 5643,
      "Ġpolar": 5644,
      "Ġlevels": 5645,
      "å²¸": 5646,
      "Ġkeep": 5647,
      "ä¼¼ä¹İ": 5648,
      "å®¾": 5649,
      "Ġnecess": 5650,
      "éĤ£äºĽ": 5651,
      "æ§": 5652,
      "åĬłä¸Ĭ": 5653,
      "ental": 5654,
      "ax": 5655,
      "èĥĢ": 5656,
      "çļĦåľ°": 5657,
      "pping": 5658,
      "éĵ¶æ²³": 5659,
      "é¦ĸæ¬¡": 5660,
      "éĢĨ": 5661,
      "_{[": 5662,
      "å¤§å¤ļæķ°": 5663,
      "é»ĳæ´ŀ": 5664,
      "æĢ§è´¨": 5665,
      "åĩ¡": 5666,
      "åĳ¨åĽ´": 5667,
      "å±±ä¸ľ": 5668,
      "cer": 5669,
      "ocity": 5670,
      "Ġpublic": 5671,
      "ants": 5672,
      "Ġdep": 5673,
      "éķ¿åº¦": 5674,
      "arp": 5675,
      "çŃīçŃī": 5676,
      "åĲ¯åĬ¨": 5677,
      ")&=": 5678,
      "Ġä»İ": 5679,
      "ä¸²": 5680,
      "Ġlog": 5681,
      "ä¹ı": 5682,
      "åºĦ": 5683,
      "olds": 5684,
      "hn": 5685,
      "æľĢå¤§çļĦ": 5686,
      "èįĲ": 5687,
      "é£Łçī©": 5688,
      "åħįè´¹": 5689,
      "ä¹¦è®°": 5690,
      "æĹ¦": 5691,
      "Ġteach": 5692,
      "çŃīçº§": 5693,
      "è·ĥ": 5694,
      "çĽ¸ä¼¼": 5695,
      "çĿ¡": 5696,
      "çŃ¹": 5697,
      "å¾Ĺåĩº": 5698,
      "ï¼īãĢĤ": 5699,
      "éĽķ": 5700,
      "Ġsimulations": 5701,
      "ches": 5702,
      "Ġpresented": 5703,
      "æĤ¨çļĦ": 5704,
      "åĬŀçĲĨ": 5705,
      "æĲº": 5706,
      "ised": 5707,
      "omin": 5708,
      "_{-\\": 5709,
      "Ġanother": 5710,
      "æĢķ": 5711,
      "åĿĽ": 5712,
      "gether": 5713,
      "éĵº": 5714,
      "Ġappear": 5715,
      "though": 5716,
      "brace": 5717,
      "æ·»åĬł": 5718,
      "Ġchanges": 5719,
      "olar": 5720,
      "å±ħæ°ĳ": 5721,
      "èģĶèµĽ": 5722,
      "ä¸Ĭè¿°": 5723,
      "Ġä¸ĭ": 5724,
      "\\},": 5725,
      "Ġstudies": 5726,
      "cip": 5727,
      "åķĨæłĩ": 5728,
      "éĤ¦": 5729,
      "çīĪæľ¬": 5730,
      ",}\\": 5731,
      "çĶµåĬĽ": 5732,
      "Ġ\\(-\\": 5733,
      "Ġent": 5734,
      "ledge": 5735,
      "ç¾¤ä¼Ĺ": 5736,
      "å¹¿ä¸ľ": 5737,
      "Ġbenef": 5738,
      "ä¼ı": 5739,
      "Ġstudied": 5740,
      ")}=\\": 5741,
      "Ġstatis": 5742,
      "Ġquanti": 5743,
      "èº«ä»½": 5744,
      "è¡ĮæĺŁ": 5745,
      "è¯ĨåĪ«": 5746,
      "ĠBe": 5747,
      "NA": 5748,
      "éĩįè§Ĩ": 5749,
      "é¢ĨåħĪ": 5750,
      "å¼ºçĥĪ": 5751,
      "rance": 5752,
      "å¦ĩ": 5753,
      "èĦīåĨ²": 5754,
      "æī«": 5755,
      "éĤ»": 5756,
      "ible": 5757,
      "deg": 5758,
      "})}": 5759,
      "èĦ¸": 5760,
      "ç¬¬åĽĽ": 5761,
      "èĲ¥åħ»": 5762,
      "å¤ĸéĥ¨": 5763,
      "åį³åı¯": 5764,
      "åĬłå¿«": 5765,
      "Ġconsistent": 5766,
      "_{*": 5767,
      "åģ¶": 5768,
      "Ġpresence": 5769,
      "ä»£çĲĨ": 5770,
      "Ġmove": 5771,
      "åı¯ä»¥åľ¨": 5772,
      "Ġview": 5773,
      "...": 5774,
      "bor": 5775,
      "Ġexact": 5776,
      "ival": 5777,
      "æĭľ": 5778,
      "Ġpositive": 5779,
      "Ġloss": 5780,
      "åĨľæĿĳ": 5781,
      "èĥİ": 5782,
      "åĿ¡": 5783,
      "æĬĳ": 5784,
      "alu": 5785,
      "put": 5786,
      "åĬ¨ä½ľ": 5787,
      "æĶ¶éĽĨ": 5788,
      "å¦Ĥä»Ĭ": 5789,
      "ature": 5790,
      "å«": 5791,
      "2019": 5792,
      "å½¢çĬ¶": 5793,
      "çŁ¥åĲį": 5794,
      "ĠWith": 5795,
      "Ġmode": 5796,
      "è±ª": 5797,
      "çĻ»è®°": 5798,
      "Ġcluster": 5799,
      "æıĲåĩºäºĨ": 5800,
      "å¼Ĥå¸¸": 5801,
      "é«ĺéĢŁ": 5802,
      "imensional": 5803,
      "nov": 5804,
      "çºł": 5805,
      "å·¥ä½ľçļĦ": 5806,
      "Ġfull": 5807,
      "Ġsche": 5808,
      "Ġæĸ°": 5809,
      "ä¸¹": 5810,
      "ä¾ĭåŃĲ": 5811,
      "Ġshows": 5812,
      "è¡ĮçļĦ": 5813,
      "Ġmetal": 5814,
      "Ġtotal": 5815,
      "space": 5816,
      "ç¢į": 5817,
      "Ġexperimental": 5818,
      "ä¸īè§Ĵ": 5819,
      "æĸľ": 5820,
      "Ġåħ¶": 5821,
      "å¼ķåĬĽ": 5822,
      "oy": 5823,
      "å®ı": 5824,
      "Ġfar": 5825,
      "åĲĦåľ°": 5826,
      "çº½": 5827,
      "çº¿ä¸Ĭ": 5828,
      "Ġ~": 5829,
      "æ·¡": 5830,
      "bon": 5831,
      "é©±åĬ¨": 5832,
      "çļĦäº§åĵģ": 5833,
      "Ġglobal": 5834,
      "åıĺå½¢": 5835,
      "Ġtoo": 5836,
      "]}": 5837,
      "Ġ18": 5838,
      "Ġmajor": 5839,
      "Ġdu": 5840,
      "ĠAt": 5841,
      "zing": 5842,
      "çĹħæ¯Ĵ": 5843,
      "è¶ħå¯¼": 5844,
      "py": 5845,
      "å¹´ä»£": 5846,
      "æ¶Īæģ¯": 5847,
      ")=-\\": 5848,
      "acc": 5849,
      "æĺ¾èĳĹ": 5850,
      "cop": 5851,
      "å¤§ä¼ļ": 5852,
      "ç§Ĵ": 5853,
      "Ġspectral": 5854,
      "sts": 5855,
      "Ġimple": 5856,
      "Ġchannel": 5857,
      "æĹ¨": 5858,
      "Ġ^": 5859,
      "éķ¿çļĦ": 5860,
      "ĠAr": 5861,
      "vartheta": 5862,
      "æĪĳä»¬è¯ģæĺİ": 5863,
      "attering": 5864,
      "éĿŀçº¿æĢ§": 5865,
      ").}\\": 5866,
      "ç¡®è®¤": 5867,
      "æĪĳä»¬çłĶç©¶": 5868,
      "Ġremo": 5869,
      "ç¼Ĩ": 5870,
      "æ¸łéģĵ": 5871,
      "Ġclassical": 5872,
      "è¶³å¤Ł": 5873,
      "åĪĽå»º": 5874,
      "çļĦæľĢ": 5875,
      "ä¸ĭéĿ¢": 5876,
      "Ġcompared": 5877,
      "æ°ı": 5878,
      "è´Łè´£äºº": 5879,
      "éĤĢ": 5880,
      "Ġband": 5881,
      "ä½ľä¸ļ": 5882,
      "ID": 5883,
      "è¸ª": 5884,
      "æ¦ľ": 5885,
      "åĨ·åį´": 5886,
      "å¹´æľĪ": 5887,
      "-\\,": 5888,
      "ä¸Ģå®ļè¦ģ": 5889,
      "å¤º": 5890,
      "èĬĤèĥ½": 5891,
      "Ġsample": 5892,
      "ĠçĶ¨": 5893,
      "åĺī": 5894,
      "ç¢°æĴŀ": 5895,
      "è£ħé¥°": 5896,
      "éĥĳ": 5897,
      "å¦Ĥä¸ĭ": 5898,
      "orted": 5899,
      "é¸¡": 5900,
      "graph": 5901,
      "è¾ĵåħ¥": 5902,
      "ĠHere": 5903,
      "æµĻ": 5904,
      "ç»ıåħ¸": 5905,
      "èī¯å¥½": 5906,
      "Ġadvan": 5907,
      "Ġcorresponding": 5908,
      "åĪ©æ¶¦": 5909,
      "Ġfund": 5910,
      "Ġparticles": 5911,
      "å®¡æŁ¥": 5912,
      "Ġvec": 5913,
      "Ġlook": 5914,
      "åĳĪçİ°": 5915,
      "ä¾Ŀæį®": 5916,
      "åĬłçĥŃ": 5917,
      "ä¸ªæľĪ": 5918,
      "Ġlength": 5919,
      "åľ°äº§": 5920,
      "å¿½": 5921,
      "çļĦå¤ļ": 5922,
      "å¯¹è±¡": 5923,
      "Ġfeel": 5924,
      "æ°¢": 5925,
      "å¹¿å¤§": 5926,
      "Ġblood": 5927,
      "å®ŀéªĮå®¤": 5928,
      "ãĢĤï¼Ī": 5929,
      "åĮ»çĶŁ": 5930,
      "cho": 5931,
      "ĠLi": 5932,
      "Ġinflu": 5933,
      "|\\,": 5934,
      "éħįåĲĪ": 5935,
      "è·Į": 5936,
      "å¼§": 5937,
      "Ġlearn": 5938,
      "Ġstrength": 5939,
      "(|": 5940,
      "åŃ¦çļĦ": 5941,
      "è¿ĩæ»¤": 5942,
      ")})": 5943,
      "å®ļä½į": 5944,
      "èĽĭçĻ½": 5945,
      "Ġresour": 5946,
      "è½¬ç§»": 5947,
      "çĮª": 5948,
      "åĮĢ": 5949,
      "mog": 5950,
      "ç¼´": 5951,
      "å½¢è±¡": 5952,
      "å¯Ĵ": 5953,
      "åľ¨æŃ¤": 5954,
      "æ±¡æ°´": 5955,
      "Ġreport": 5956,
      "lti": 5957,
      "bri": 5958,
      "æĭĴ": 5959,
      "xed": 5960,
      "Ġcoupling": 5961,
      "fication": 5962,
      "åŀĥ": 5963,
      "ä¸Ĭåįĩ": 5964,
      "å¤įåĲĪ": 5965,
      "åĨ²åĩ»": 5966,
      "IS": 5967,
      "æ¿Ģåħī": 5968,
      "åıĳçĶµ": 5969,
      "Ġcreate": 5970,
      "åľ¾": 5971,
      "çī¹å®ļ": 5972,
      "è®ºæĸĩ": 5973,
      "çªģçł´": 5974,
      "ror": 5975,
      "æ¯ıä¸Ģ": 5976,
      "Ġlattice": 5977,
      "Ġconta": 5978,
      "å¤¸": 5979,
      "æī£": 5980,
      "æĭ¼": 5981,
      "},\\]": 5982,
      "ĠæĹ¶": 5983,
      "enter": 5984,
      "éĺĢ": 5985,
      "èĩªæĪĳ": 5986,
      "leqslant": 5987,
      "\\!\\": 5988,
      "çļĦæķ°æį®": 5989,
      "æ²»çĲĨ": 5990,
      "square": 5991,
      "åħħçĶµ": 5992,
      "çĻĮ": 5993,
      "æĪĳä»¬å°Ĩ": 5994,
      "æĦŁæŁĵ": 5995,
      "èµı": 5996,
      "æĳĺè¦ģ": 5997,
      "Ġlikely": 5998,
      "ä¹³": 5999,
      "Ġold": 6000,
      "æĴĳ": 6001,
      "ä½İäºİ": 6002,
      "éĩįåĬĽ": 6003,
      "}}+": 6004,
      "æĽ´æĸ°": 6005,
      "strate": 6006,
      "å¯¹åºĶ": 6007,
      "åħ±äº«": 6008,
      "ets": 6009,
      "èĥ¡": 6010,
      "Ġem": 6011,
      "éĽĨæĪĲ": 6012,
      "æłı": 6013,
      "Ġdig": 6014,
      "èį¡": 6015,
      "äº¡": 6016,
      "Ġstrateg": 6017,
      "Ġlaw": 6018,
      "äºķ": 6019,
      "Ġsoft": 6020,
      "Ġcharacteri": 6021,
      "æľīçĿĢ": 6022,
      "ious": 6023,
      "Ġri": 6024,
      "å°Ĭ": 6025,
      "ä¸įåĪ°": 6026,
      "Ġpu": 6027,
      "å½¢æĢģ": 6028,
      "Ġcl": 6029,
      "æµģéĩı": 6030,
      "åĶĲ": 6031,
      "Ġsuccess": 6032,
      "Ġåı¯": 6033,
      "å¼ºåĮĸ": 6034,
      "åĪĢ": 6035,
      "ĠBut": 6036,
      "ectively": 6037,
      "æµģåĬ¨": 6038,
      "æ³½": 6039,
      "åŀĥåľ¾": 6040,
      "ä¼ĺè´¨": 6041,
      "Ġamp": 6042,
      "Ġä¼ļ": 6043,
      "Ġage": 6044,
      "Ġdisease": 6045,
      "Ġfeatures": 6046,
      "ä¸Ńåįİ": 6047,
      "çº¿çļĦ": 6048,
      "åķĨåĬ¡": 6049,
      "æİ¨åĩº": 6050,
      "Ġagree": 6051,
      "æ²ŁéĢļ": 6052,
      "}}+\\": 6053,
      "ky": 6054,
      "Ġfact": 6055,
      "æľīäºº": 6056,
      "Ġmen": 6057,
      "åĶ¯ä¸Ģ": 6058,
      "æ¸ħæ´ģ": 6059,
      "åĨłåĨĽ": 6060,
      "ä¼½": 6061,
      "ircu": 6062,
      "ç®¡éģĵ": 6063,
      "éĢļçĶ¨": 6064,
      "æī¿æĭħ": 6065,
      "å¤ļå°ĳ": 6066,
      "ĠDi": 6067,
      "å¼Ł": 6068,
      "èĤº": 6069,
      "ĠæĪĸ": 6070,
      "è½¬åŀĭ": 6071,
      "ä»ģ": 6072,
      "site": 6073,
      "Ġreson": 6074,
      "Ġfollowing": 6075,
      "åł¡": 6076,
      "Ġindust": 6077,
      "åľ¨æľ¬æĸĩ": 6078,
      "çº¢èī²": 6079,
      "ES": 6080,
      "ç¥ŀç»ı": 6081,
      "Ġunderstanding": 6082,
      "åĮĸå·¥": 6083,
      "Ġä»¬": 6084,
      "ssi": 6085,
      "Ġpatter": 6086,
      "æİĮæı¡": 6087,
      "vities": 6088,
      "ä¸»åĬ¨": 6089,
      "isions": 6090,
      "è¿«": 6091,
      "ä¸Ńå°ı": 6092,
      "Ġdetermine": 6093,
      "uals": 6094,
      "Ġsolar": 6095,
      "Ġapplications": 6096,
      "äº¤åıī": 6097,
      "Ġwhi": 6098,
      "æĬ¥éģĵ": 6099,
      "Ġpressure": 6100,
      "èħĲèļĢ": 6101,
      "Ġmanage": 6102,
      "éĩĩè´Ń": 6103,
      "wards": 6104,
      "å®ļæľŁ": 6105,
      "è§Ĥä¼Ĺ": 6106,
      "å¼ºçļĦ": 6107,
      "è¾¹ç¼ĺ": 6108,
      "Ġinteg": 6109,
      "Ġpoints": 6110,
      "æĽ´å¤ļçļĦ": 6111,
      "çİ©å®¶": 6112,
      "}:=\\": 6113,
      "å¼ķå¯¼": 6114,
      "æ³ī": 6115,
      "Ġdiffic": 6116,
      "For": 6117,
      "Ġ[\\": 6118,
      "outh": 6119,
      "éĹ®é¢ĺçļĦ": 6120,
      "ession": 6121,
      "Ġaccess": 6122,
      "ä¿Ĺ": 6123,
      "åĮ»åŃ¦": 6124,
      "è°ĥèĬĤ": 6125,
      "åħ¹": 6126,
      "æ·±åº¦": 6127,
      "MS": 6128,
      "Ġdia": 6129,
      "Ġsw": 6130,
      "æĭĨ": 6131,
      "Ġidentify": 6132,
      "Bigr": 6133,
      "åĲĦä¸ª": 6134,
      "Ġneeds": 6135,
      "nging": 6136,
      "å¿Ĩ": 6137,
      "Ġagainst": 6138,
      "Ġhar": 6139,
      "'}": 6140,
      "çĤ¸": 6141,
      "ä¸ĢçĤ¹": 6142,
      "äº¤æį¢": 6143,
      "cies": 6144,
      "è´·æ¬¾": 6145,
      "çİĽ": 6146,
      "son": 6147,
      "bits": 6148,
      "void": 6149,
      "åĲ´": 6150,
      "ç¥Ŀ": 6151,
      "åīª": 6152,
      "fficient": 6153,
      "Ġeconom": 6154,
      "ç£ģçĽĺ": 6155,
      "Ġsymmetry": 6156,
      "Ġplane": 6157,
      "~~~~": 6158,
      "æ³ķéĻ¢": 6159,
      "çĶµèĦĳ": 6160,
      "æī©æķ£": 6161,
      "Ġtechnology": 6162,
      "rations": 6163,
      "é©¾é©¶": 6164,
      "Ġdyna": 6165,
      "å®ŀåĬĽ": 6166,
      "éĺ²æİ§": 6167,
      "ropy": 6168,
      "Ġaccount": 6169,
      "é«ĺæ¸©": 6170,
      "æİ¨èįĲ": 6171,
      "ä¸Ģä½ĵ": 6172,
      "éĹ²": 6173,
      "ä¿Ŀæ¸©": 6174,
      "ä»ªåĻ¨": 6175,
      "åĲ«æľī": 6176,
      "Ġframework": 6177,
      "Ġprec": 6178,
      "æ¯ıå¹´": 6179,
      "quence": 6180,
      "cept": 6181,
      "Ġstellar": 6182,
      "Co": 6183,
      "ĠCO": 6184,
      "ç¼Ŀ": 6185,
      "Ġaddress": 6186,
      "Ġdeveloped": 6187,
      "éŀ": 6188,
      "licit": 6189,
      "Ġnumerical": 6190,
      "more": 6191,
      "æ°ĳæĹı": 6192,
      "ĠUsing": 6193,
      "Ġareas": 6194,
      "()": 6195,
      "Ġreduce": 6196,
      "çĽ¸åºĶçļĦ": 6197,
      "Ġcharacteristic": 6198,
      "èı²": 6199,
      "Ġaction": 6200,
      "mino": 6201,
      "To": 6202,
      "which": 6203,
      "lating": 6204,
      "Ġcommunic": 6205,
      "Ġsmo": 6206,
      "Ġsearch": 6207,
      "ering": 6208,
      "Ġleast": 6209,
      "Ġbelie": 6210,
      "ç²Ĺ": 6211,
      "åĪĬ": 6212,
      "å®¤åĨħ": 6213,
      "rel": 6214,
      "æľīæķĪçļĦ": 6215,
      "ä½ĵçİ°": 6216,
      "Ġnormal": 6217,
      "éĺħè¯»": 6218,
      "Ġmultiple": 6219,
      "Ġmatrix": 6220,
      "çłĤ": 6221,
      "Ġtrac": 6222,
      "è¯±": 6223,
      "ç¨Ģ": 6224,
      "ç§¯åĪĨ": 6225,
      "ano": 6226,
      "Ġexten": 6227,
      "èĤĮ": 6228,
      "uro": 6229,
      "Ġpopulation": 6230,
      "å¼ıçļĦ": 6231,
      "Ġmanif": 6232,
      "urity": 6233,
      "Ġnature": 6234,
      "Ġsince": 6235,
      "ä¸ĵåĪ©": 6236,
      "Ġothers": 6237,
      "ories": 6238,
      "Ġcome": 6239,
      "åħĪçĶŁ": 6240,
      "ä¹łæĥ¯": 6241,
      "åĸĿ": 6242,
      "çĶµæµģ": 6243,
      "An": 6244,
      "éĿĴå¹´": 6245,
      "Ġperson": 6246,
      "Ġpul": 6247,
      "ouble": 6248,
      "åŀĤ": 6249,
      "æķıæĦŁ": 6250,
      "substack": 6251,
      ")|\\": 6252,
      "åįıè°ĥ": 6253,
      "Ġflux": 6254,
      "Ġgovern": 6255,
      "å¤©çĦ¶": 6256,
      "Ġrece": 6257,
      "CS": 6258,
      "Ġato": 6259,
      "è¾ĵåĩº": 6260,
      "æĬ¢": 6261,
      "çľŁç©º": 6262,
      "ences": 6263,
      "+|": 6264,
      "Ġwant": 6265,
      "Ġderived": 6266,
      "Ġ()": 6267,
      "éĶĭ": 6268,
      "Ġchar": 6269,
      "åıįæĺł": 6270,
      "}}\\,": 6271,
      "æĳĨ": 6272,
      "Ġmagne": 6273,
      "çĶµæºĲ": 6274,
      "Ġreach": 6275,
      "å±Ģéĥ¨": 6276,
      "æĸĩæĺİ": 6277,
      "åıĺæĪĲ": 6278,
      "Ġgalaxy": 6279,
      "Ġè¿ĻäºĽ": 6280,
      "å²Ĺä½į": 6281,
      "æ¸Ĺ": 6282,
      "çİ¯èĬĤ": 6283,
      "é¡ºåĪ©": 6284,
      "Ġinteractions": 6285,
      "çķħ": 6286,
      "ĠOn": 6287,
      "})+": 6288,
      "åĪĨè¾¨": 6289,
      "å°ºåº¦": 6290,
      "ç±»åĪ«": 6291,
      "Ġevidence": 6292,
      "ç±į": 6293,
      "Ġhistory": 6294,
      "Ġemploy": 6295,
      "åŃĹæ®µ": 6296,
      "ĠCar": 6297,
      "å°Ŀ": 6298,
      "æ¶µ": 6299,
      "åľ°éĿ¢": 6300,
      "æįķ": 6301,
      "ç©ºéĹ´çļĦ": 6302,
      "em": 6303,
      "wo": 6304,
      "æĿľ": 6305,
      "éĻ¶": 6306,
      "racy": 6307,
      "æīĢè°ĵ": 6308,
      "èĮĥåĽ´åĨħ": 6309,
      "Ġstra": 6310,
      "åĲĦé¡¹": 6311,
      "Ġperformance": 6312,
      "vey": 6313,
      "å¥ı": 6314,
      "ä¹Łå°±æĺ¯": 6315,
      "Ġparticle": 6316,
      "ä»¿": 6317,
      "èĩªä¸»": 6318,
      "çľŁçļĦ": 6319,
      "mar": 6320,
      "åľºæĻ¯": 6321,
      "Ġdecay": 6322,
      "Ġfactors": 6323,
      ":-": 6324,
      "ination": 6325,
      "åłĨ": 6326,
      "ä¸»ç®¡": 6327,
      "æľīäºĨ": 6328,
      "ule": 6329,
      "å¿ĺ": 6330,
      "Ġbar": 6331,
      "å®¶éķ¿": 6332,
      "åŃĻ": 6333,
      "\\}_{": 6334,
      "Ġdiscussed": 6335,
      "çĩ¥": 6336,
      "çļĦçĥŃ": 6337,
      "Ġtechniques": 6338,
      "æ¸ħæ´Ĺ": 6339,
      "\\,+\\,": 6340,
      "æ¶Īéĺ²": 6341,
      "çİ°æľī": 6342,
      "åĭ¤": 6343,
      "ç¨³å®ļæĢ§": 6344,
      "åĪºæ¿Ģ": 6345,
      "åŃĺåĤ¨": 6346,
      "bul": 6347,
      "lion": 6348,
      "å¯»æī¾": 6349,
      "è·¯å¾Ħ": 6350,
      "ç»ĦçļĦ": 6351,
      "æķ£å°Ħ": 6352,
      "Ġdescribe": 6353,
      "æīİ": 6354,
      "åĩ¯": 6355,
      "go": 6356,
      "Ġvia": 6357,
      "Ġphen": 6358,
      "scil": 6359,
      "Ġclose": 6360,
      "Bigl": 6361,
      "):": 6362,
      "Ġvelocity": 6363,
      "æķ¬": 6364,
      "èħ¾": 6365,
      "Ġ,\\)": 6366,
      "Ġlarger": 6367,
      "Ġbusiness": 6368,
      "Ġpossi": 6369,
      "bly": 6370,
      "Ġcour": 6371,
      "Ġintegra": 6372,
      "åĵģç§į": 6373,
      "åĪĨéħį": 6374,
      "å¤ĸçļĦ": 6375,
      "igen": 6376,
      "ides": 6377,
      "ste": 6378,
      "åŃ¦ç§ĳ": 6379,
      "IN": 6380,
      "åľ°çĲĥ": 6381,
      "å°ĸ": 6382,
      "))\\)": 6383,
      "åľ¨ä¸Ń": 6384,
      "åľ¨äºİ": 6385,
      "ç»´ä¿®": 6386,
      "éĶĪéĴ¢": 6387,
      "ç¥ĸ": 6388,
      "iled": 6389,
      "éĿ¢ä¸´": 6390,
      "æ¼Ĩ": 6391,
      "ç»ª": 6392,
      "2022": 6393,
      "æľīåı¯èĥ½": 6394,
      "Ġdid": 6395,
      "æ¸ħæ¥ļ": 6396,
      "ator": 6397,
      "è¯ģä¹¦": 6398,
      "Ġstructures": 6399,
      "å°ģéĹŃ": 6400,
      "})^": 6401,
      "åĻªéŁ³": 6402,
      "æĵ¦": 6403,
      "Tf": 6404,
      "ĠåĲİ": 6405,
      "Ġemb": 6406,
      "}}\\]": 6407,
      "è¿Ļä¹Ī": 6408,
      "Ġobjects": 6409,
      "ĠFe": 6410,
      "Ġname": 6411,
      "å®ħ": 6412,
      "ç¬¬åįģ": 6413,
      "ĠæľĢ": 6414,
      "Ġfrequency": 6415,
      "èİ·å¾ĹäºĨ": 6416,
      "é¢ĳè°±": 6417,
      "åĲĮæŃ¥": 6418,
      "Ġacross": 6419,
      "èĤ¯å®ļ": 6420,
      "PC": 6421,
      "Ġapplied": 6422,
      "luctu": 6423,
      "thes": 6424,
      "è®¨è®ºäºĨ": 6425,
      "ä¼Ļä¼´": 6426,
      "Ġbelow": 6427,
      "alk": 6428,
      "test": 6429,
      "å§ĭç»Ī": 6430,
      "}^*": 6431,
      "æŁĶ": 6432,
      "èį¯çī©": 6433,
      "Ġyoung": 6434,
      "Ġsuperconduc": 6435,
      ")}_": 6436,
      "black": 6437,
      "Ġscattering": 6438,
      "Ġspa": 6439,
      "||": 6440,
      "},{\\": 6441,
      "nities": 6442,
      "ittle": 6443,
      "ç¾Ĭ": 6444,
      "æīŃ": 6445,
      "éĥ¨ä»¶": 6446,
      "Ġeasi": 6447,
      "Ġgauge": 6448,
      "çĶĺ": 6449,
      "ortu": 6450,
      "çĶŁéķ¿": 6451,
      "Ġreve": 6452,
      "èĭ±è¯Ń": 6453,
      "äº«åıĹ": 6454,
      "åµ": 6455,
      "ç¤ºèĮĥ": 6456,
      "AM": 6457,
      "geqslant": 6458,
      "main": 6459,
      "gal": 6460,
      "Ġtogether": 6461,
      "Ġquality": 6462,
      "Ġconver": 6463,
      "åĪĽä½ľ": 6464,
      "Ġhor": 6465,
      "eral": 6466,
      "æĪĳä»¬çĶ¨": 6467,
      "Ġeither": 6468,
      "æłĩå¿Ĺ": 6469,
      "ç»ĻäºĪ": 6470,
      "Ġexperience": 6471,
      "Ġspi": 6472,
      "åĲįçļĦ": 6473,
      "ards": 6474,
      "gative": 6475,
      "è¶³çĲĥ": 6476,
      ")}(\\": 6477,
      "fac": 6478,
      "æıŃ": 6479,
      "}},\\": 6480,
      "cing": 6481,
      "lip": 6482,
      "éĩįåºĨ": 6483,
      "çĻ£": 6484,
      "å¹¶åľ¨": 6485,
      "Ġcentral": 6486,
      "çī©ä½ĵ": 6487,
      "åĢ¼çļĦ": 6488,
      "äººå£«": 6489,
      "åĩºçīĪ": 6490,
      "æĤ¬": 6491,
      "itor": 6492,
      "Ġevalu": 6493,
      "åĲĪæĪĲ": 6494,
      "ymptoms": 6495,
      "aris": 6496,
      "äºĮæ¬¡": 6497,
      "Ġspectra": 6498,
      "çļĦåŁºç¡Ģ": 6499,
      "åıĳè¡¨": 6500,
      "Ġterm": 6501,
      "OS": 6502,
      "èĢĥçĶŁ": 6503,
      "æĦĪ": 6504,
      "dition": 6505,
      "å®ĺæĸ¹": 6506,
      "çīĽçļ®": 6507,
      "æĭħä»»": 6508,
      "ĠComp": 6509,
      "but": 6510,
      "roscop": 6511,
      "åıĺæį¢": 6512,
      "åĲĮä¸Ģ": 6513,
      "åºĶçĶ¨äºİ": 6514,
      "Ġelectr": 6515,
      "Ġalways": 6516,
      "èĪªç©º": 6517,
      "green": 6518,
      "å·¥åİĤ": 6519,
      "Ġoscil": 6520,
      "å±¥": 6521,
      "Ġè¢«": 6522,
      "Ġexhi": 6523,
      "è¯ģåĪ¸": 6524,
      "ĠFin": 6525,
      "è¡¥åħħ": 6526,
      "can": 6527,
      "è´¢æĶ¿": 6528,
      "ules": 6529,
      "çĪ¶æ¯į": 6530,
      "æµĻæ±Ł": 6531,
      "ET": 6532,
      "è¾Ľ": 6533,
      "ously": 6534,
      "åľ¨çļĦ": 6535,
      "Ġrun": 6536,
      "é½¿": 6537,
      "Ġ_{\\": 6538,
      "ire": 6539,
      "æ±¤": 6540,
      "æĢ»ç»ĵ": 6541,
      "pped": 6542,
      "åĮ¹éħį": 6543,
      "Ġther": 6544,
      "åħīåŃĲ": 6545,
      "ĠCa": 6546,
      "ka": 6547,
      "ä¼łæĦŁ": 6548,
      "Ġhapp": 6549,
      "å·²çŁ¥": 6550,
      "=\\{": 6551,
      "ĠMore": 6552,
      "è¿ĳå¹´æĿ¥": 6553,
      "Ġzero": 6554,
      "åħ¬åĽŃ": 6555,
      "lent": 6556,
      "})}\\": 6557,
      "Ġexistence": 6558,
      "åŁºåĽł": 6559,
      "Ġfit": 6560,
      "Ġelectric": 6561,
      "cale": 6562,
      "ä¸ĵéĹ¨": 6563,
      "ç¬¬ä¸Ģæ¬¡": 6564,
      "Ġey": 6565,
      "åħ³èģĶ": 6566,
      "åŃ¦æľ¯": 6567,
      "Ġinde": 6568,
      "Ġsubs": 6569,
      "ĠéĢļè¿ĩ": 6570,
      "Ġarticle": 6571,
      "æ´»æĢ§": 6572,
      "é«ĺè´¨éĩı": 6573,
      "2018": 6574,
      "ĠæĿ¥": 6575,
      "åı¯ä»¥éĢļè¿ĩ": 6576,
      "å¤ļåħĥ": 6577,
      "Ġä½¿çĶ¨": 6578,
      "æł¹æľ¬": 6579,
      "éĢ»": 6580,
      "part": 6581,
      "avy": 6582,
      "å¸¸è§Ħ": 6583,
      "})^{\\": 6584,
      "BA": 6585,
      "pr": 6586,
      "Ġ15": 6587,
      "è®¤çľŁ": 6588,
      "è¶ħçº§": 6589,
      "æľĪä»½": 6590,
      "çĽĴ": 6591,
      "æĺ¯ä¸į": 6592,
      "å¸ĥå±Ģ": 6593,
      "çĽ´æĴŃ": 6594,
      "Ġsimp": 6595,
      "èĦĬ": 6596,
      "ĠEn": 6597,
      "å¹´é¾Ħ": 6598,
      "Ġindividual": 6599,
      "å°ıç»Ħ": 6600,
      "åİŁçĲĨ": 6601,
      "æīĭæ®µ": 6602,
      "Ġcruc": 6603,
      "Ġè¦ģ": 6604,
      "ntial": 6605,
      "Ġnecessary": 6606,
      "Ġmaterial": 6607,
      "667": 6608,
      "ĠLe": 6609,
      "åĲĪéĩĳ": 6610,
      "æ±Łèĭı": 6611,
      "åĪ©äºİ": 6612,
      "å·ŀå¸Ĥ": 6613,
      "Ġhydro": 6614,
      "ium": 6615,
      "Ġsitu": 6616,
      "éĩĮçļĦ": 6617,
      "Ġregions": 6618,
      "Ġheat": 6619,
      "æīĵå¼Ģ": 6620,
      "åıĳçļĦ": 6621,
      "ä¸Ģå®¶": 6622,
      "äºĮåįģ": 6623,
      "é©»": 6624,
      "Ġwhether": 6625,
      "åĽ´ç»ķ": 6626,
      "gine": 6627,
      "åħ¬åĳĬ": 6628,
      "resh": 6629,
      "æĮĸ": 6630,
      "å¼Ĺ": 6631,
      "Ġratio": 6632,
      "çĲ´": 6633,
      "ĠSt": 6634,
      "äºĭé¡¹": 6635,
      "åĪĿå§ĭ": 6636,
      "ä¸´çķĮ": 6637,
      "\\\\\\": 6638,
      "çºµ": 6639,
      "çĵ·": 6640,
      "Ġformula": 6641,
      "Ġfeed": 6642,
      "Im": 6643,
      "Ġcyc": 6644,
      "\\,.": 6645,
      "Ġrelation": 6646,
      "sinh": 6647,
      "Ġradio": 6648,
      "isms": 6649,
      "å°Ĩåľ¨": 6650,
      "æī°åĬ¨": 6651,
      "èķ": 6652,
      "Ġinterpre": 6653,
      "åįļå£«": 6654,
      "erc": 6655,
      "lat": 6656,
      ")).": 6657,
      "åħħæ»¡": 6658,
      "çĥ¯": 6659,
      "Ġunique": 6660,
      "Ġincreasing": 6661,
      "åľºçļĦ": 6662,
      "è²": 6663,
      "Ġexperiments": 6664,
      "Ġatta": 6665,
      "éļ¾ä»¥": 6666,
      "lab": 6667,
      "è¿Ľåı£": 6668,
      "èĤ¿": 6669,
      "åľºæīĢ": 6670,
      "ç»Ŀå¯¹": 6671,
      "èĩ´åĬĽ": 6672,
      "æĺ¯æĮĩ": 6673,
      "sitions": 6674,
      "ä¸ĢåĪĩ": 6675,
      "é»İ": 6676,
      "ĠCha": 6677,
      "æĶ¯æĴĳ": 6678,
      "Ġspecies": 6679,
      "rage": 6680,
      "Ġ16": 6681,
      "Ġphenomen": 6682,
      "tered": 6683,
      "Ġmakes": 6684,
      "ash": 6685,
      "Ġbackground": 6686,
      "æĶ¾åľ¨": 6687,
      "ones": 6688,
      "é¼ĵåĬ±": 6689,
      "ynom": 6690,
      "é¢Ĺç²Ĵ": 6691,
      "çıį": 6692,
      "å¤įåĪ¶": 6693,
      "Ġreac": 6694,
      "å°¤åħ¶æĺ¯": 6695,
      "Ġvir": 6696,
      "èĬĤçĤ¹": 6697,
      "èģĮå·¥": 6698,
      "})-": 6699,
      "ä¼Ĺå¤ļ": 6700,
      "è´¢åĬ¡": 6701,
      "ird": 6702,
      "èĦı": 6703,
      "ä¸´åºĬ": 6704,
      "tangle": 6705,
      "Ġfore": 6706,
      "åī©": 6707,
      "æĻĵ": 6708,
      "èī¾": 6709,
      "vdots": 6710,
      "çļĦæĬĢæľ¯": 6711,
      "back": 6712,
      "CP": 6713,
      "ermi": 6714,
      "æĽ´å¥½çļĦ": 6715,
      "èģĶçĽŁ": 6716,
      "è®©äºº": 6717,
      "Ġdog": 6718,
      "Ġir": 6719,
      "åįĬå¹´": 6720,
      "]=\\": 6721,
      "åĬłçĽŁ": 6722,
      "æĶ¹éĢł": 6723,
      "Ġexpected": 6724,
      "Ġissues": 6725,
      ")),": 6726,
      "å¹¸ç¦ı": 6727,
      "Ġcells": 6728,
      "ä¾Ŀæ³ķ": 6729,
      "Ġhole": 6730,
      "pecially": 6731,
      "è¿Ł": 6732,
      "çĪ¸": 6733,
      "å¾®ä¿¡": 6734,
      "è§Ĵèī²": 6735,
      "Ġscien": 6736,
      "Ġbegin": 6737,
      "å¿ĥçļĦ": 6738,
      "èµµ": 6739,
      "ç»´åº¦": 6740,
      "èĳ¡": 6741,
      "blue": 6742,
      "çģĮ": 6743,
      "Ġknowledge": 6744,
      "field": 6745,
      "Ġæľ¬": 6746,
      "ä¸ŃéĹ´": 6747,
      "Ġplant": 6748,
      "å£®": 6749,
      "è¿ĳæĹ¥": 6750,
      "ĠMon": 6751,
      "çĤŃ": 6752,
      "éĺŁä¼į": 6753,
      "æĺ¯ä»Ģä¹Ī": 6754,
      "Ġmaterials": 6755,
      "åı¬å¼Ģ": 6756,
      "ĠçłĶç©¶": 6757,
      "è¿ĽåĮĸ": 6758,
      "èŀįèµĦ": 6759,
      "ä½łä»¬": 6760,
      "ç¼ł": 6761,
      "çĶľ": 6762,
      "pes": 6763,
      "æĪĲéĥ½": 6764,
      "Ġproduct": 6765,
      "åĨ»": 6766,
      "ave": 6767,
      "ä¸°å¯ĮçļĦ": 6768,
      "èĨ¨": 6769,
      "åĽ¾å½¢": 6770,
      "éĢļéģĵ": 6771,
      "åīĸ": 6772,
      "Ġexci": 6773,
      "Ġways": 6774,
      "IT": 6775,
      "åĪ©çĽĬ": 6776,
      "å¥³æĢ§": 6777,
      "ĠSome": 6778,
      "åĲĪæł¼": 6779,
      "Ġexperiment": 6780,
      "ji": 6781,
      "æĽ´ä¸º": 6782,
      "Ġensure": 6783,
      "eff": 6784,
      "ours": 6785,
      "Ġdiag": 6786,
      "Ġperturb": 6787,
      "varrho": 6788,
      "Ġlanguage": 6789,
      "Ġcircu": 6790,
      "è½¬åıĺ": 6791,
      "æµģä½ĵ": 6792,
      "å¾Ĵ": 6793,
      "scr": 6794,
      "Ġboundary": 6795,
      "mediate": 6796,
      "è¿ĽæŃ¥": 6797,
      "èĢ¶": 6798,
      "è°Ĳ": 6799,
      "ana": 6800,
      "Ġabsor": 6801,
      "IM": 6802,
      "Ġfluctu": 6803,
      "éĢļéĩı": 6804,
      "åĩĳ": 6805,
      "è²Į": 6806,
      "Ġdiv": 6807,
      "Ġcomponents": 6808,
      "ey": 6809,
      "Ġapplication": 6810,
      "Ġbul": 6811,
      "åĵ²": 6812,
      "å¤§çº¦": 6813,
      "Ġhaving": 6814,
      "çīĽçļ®çĻ£": 6815,
      "æ³ķè§Ħ": 6816,
      "Ġmeasured": 6817,
      "åħ±åĴĮ": 6818,
      "è¿½æ±Ĥ": 6819,
      "Ġcoll": 6820,
      "Ġsyn": 6821,
      "æĸ¯åĿ¦": 6822,
      "åħ¬ä¼Ĺ": 6823,
      "}}-": 6824,
      "SU": 6825,
      "teq": 6826,
      "å±ķçİ°": 6827,
      "lit": 6828,
      "åį±éĻ©": 6829,
      "Ġlast": 6830,
      "çªģåĩº": 6831,
      "oun": 6832,
      "Ġnonlinear": 6833,
      "äºĭæķħ": 6834,
      "There": 6835,
      "ç½ĳä¸Ĭ": 6836,
      "å®£å¸ĥ": 6837,
      "...,": 6838,
      "èĤł": 6839,
      "ymmetric": 6840,
      ")<\\": 6841,
      "Ġï¼Ľ": 6842,
      "è¿Ļæ¬¡": 6843,
      "ä¸įéĶĪéĴ¢": 6844,
      "meq": 6845,
      "Ġ}{": 6846,
      "Ġoffer": 6847,
      "è¡į": 6848,
      "mann": 6849,
      "ina": 6850,
      "æĩĤ": 6851,
      "è¾ī": 6852,
      "å¿ł": 6853,
      "çĶµè·¯": 6854,
      "ogni": 6855,
      "æķ´åĲĪ": 6856,
      "å°Ĩä¼ļ": 6857,
      "ä½ĵç§¯": 6858,
      "pid": 6859,
      "Ġconclu": 6860,
      "tives": 6861,
      "ori": 6862,
      "Ġprima": 6863,
      "åĪĨæķ£": 6864,
      "Ġstress": 6865,
      "Ġbal": 6866,
      "Ġmi": 6867,
      "dent": 6868,
      "Ġhyper": 6869,
      "Ġdoc": 6870,
      "ralle": 6871,
      "å¸ĤåľºçļĦ": 6872,
      "Ġextre": 6873,
      "Ġè¿Ľè¡Į": 6874,
      "Ġorbit": 6875,
      "äºİæĺ¯": 6876,
      "çĶµåİĭ": 6877,
      "æķ°åĢ¼": 6878,
      "åĽŀæĶ¶": 6879,
      "ĠçĶ±": 6880,
      "Ġnext": 6881,
      "å¼¯": 6882,
      "Ġion": 6883,
      "Ġelements": 6884,
      "å§ĵ": 6885,
      "æĢ»æĺ¯": 6886,
      "yellow": 6887,
      "utri": 6888,
      "Ġsignal": 6889,
      "He": 6890,
      "åīįçļĦ": 6891,
      "Ġdefined": 6892,
      "ä¸Ģç³»åĪĹ": 6893,
      "æĽ´æĺ¯": 6894,
      "tivities": 6895,
      "ä¸»è¦ģæĺ¯": 6896,
      "Ġdistance": 6897,
      "ances": 6898,
      "çº¢å¤ĸ": 6899,
      "}}{(": 6900,
      "åľ¨è¿ĻéĩĮ": 6901,
      "imp": 6902,
      "reed": 6903,
      "Ġleading": 6904,
      "Ġcosm": 6905,
      "æŀģéĻĲ": 6906,
      "Ġelectro": 6907,
      "ç®Ģç§°": 6908,
      "Ġaverage": 6909,
      "Ġproced": 6910,
      "åľ°åĿĢ": 6911,
      "æ¸ħæĻ": 6912,
      "Ġscen": 6913,
      "Ġsum": 6914,
      "èµĭ": 6915,
      "Ġful": 6916,
      "Ġcontra": 6917,
      "terna": 6918,
      "Ġweb": 6919,
      "Ġrecently": 6920,
      "mathscr": 6921,
      "Ġbroad": 6922,
      "è§Ĩä¸º": 6923,
      "ç½Ĺæĸ¯": 6924,
      "çļĦä½ľçĶ¨": 6925,
      "cosh": 6926,
      "IP": 6927,
      "Ġdependence": 6928,
      "é¢Ħéĺ²": 6929,
      "å¤ļå¹´": 6930,
      "éĽ¾": 6931,
      "çŃĸçķ¥": 6932,
      "ussian": 6933,
      "æ°Ľ": 6934,
      "Ad": 6935,
      "çłĸ": 6936,
      "æĬĢæľ¯çļĦ": 6937,
      "Ġprevent": 6938,
      "grams": 6939,
      "çĲĨè®ºçļĦ": 6940,
      "osp": 6941,
      "çŀ¬": 6942,
      "dical": 6943,
      "ped": 6944,
      "åĪĨè¾¨çİĩ": 6945,
      "è¡°åıĺ": 6946,
      "Ġrequired": 6947,
      "Ġvariety": 6948,
      "Ġthings": 6949,
      "Ġcharge": 6950,
      "éļıåĲİ": 6951,
      "500": 6952,
      "mass": 6953,
      "è¿ĺè¦ģ": 6954,
      "æ°¨": 6955,
      "Ġexplicit": 6956,
      "rete": 6957,
      "Ġinten": 6958,
      "åŃ¦ä¼ļ": 6959,
      "åµĮ": 6960,
      "å¹²éĥ¨": 6961,
      "band": 6962,
      "åĲĪéĢĤ": 6963,
      "åĽĽä¸ª": 6964,
      "Ġseen": 6965,
      "Ġwhy": 6966,
      "ditional": 6967,
      "Ġwid": 6968,
      "èĪį": 6969,
      "åĿĲæłĩ": 6970,
      "æĸĩåŃĹ": 6971,
      "sw": 6972,
      "å¼¹æĢ§": 6973,
      "å£¤": 6974,
      "Ġreview": 6975,
      "Ġcost": 6976,
      "Ġseries": 6977,
      "Ġdescribed": 6978,
      "Con": 6979,
      "Ġ;": 6980,
      "omes": 6981,
      "Ġtheoretical": 6982,
      "Ġ11": 6983,
      "éĢĲæŃ¥": 6984,
      "Ġsoci": 6985,
      "ush": 6986,
      "Ġdisk": 6987,
      "Ġdemonstrate": 6988,
      "ä½©": 6989,
      "]_{": 6990,
      "åĽĽå·Ŀ": 6991,
      "åĲ«éĩı": 6992,
      "æľĢä½İ": 6993,
      "ç¡®å®ŀ": 6994,
      "Ġlines": 6995,
      "ried": 6996,
      "Ġpain": 6997,
      "å»¶ä¼¸": 6998,
      "Ġpath": 6999,
      "æĦŁåıĹ": 7000,
      "Ġproducts": 7001,
      "Ġtarge": 7002,
      "Ġthus": 7003,
      "ãĢĭï¼Į": 7004,
      "Ġpara": 7005,
      "å¸¦æľī": 7006,
      "Ġneutr": 7007,
      "é¸Ł": 7008,
      "åŃ£åº¦": 7009,
      "çº¦æĿŁ": 7010,
      "çĶµç¼Ĩ": 7011,
      "inte": 7012,
      "Ġgamma": 7013,
      "Ġresi": 7014,
      "æ»´": 7015,
      "ä»ĭç»įäºĨ": 7016,
      "Ġcontext": 7017,
      "Ġevent": 7018,
      "down": 7019,
      "sis": 7020,
      "Ġfinding": 7021,
      "verall": 7022,
      "ara": 7023,
      ")\\;": 7024,
      "å»ºéĢł": 7025,
      "tane": 7026,
      "Ġanimal": 7027,
      "ĠRa": 7028,
      "AN": 7029,
      "èİ·å¾ĹçļĦ": 7030,
      "è£ħå¤ĩ": 7031,
      "æĹ¶éĹ´çļĦ": 7032,
      "åįıåĬ©": 7033,
      "Ġds": 7034,
      "æĪĲçĨŁ": 7035,
      "Ġdomin": 7036,
      "ä¸ĵä¸ļçļĦ": 7037,
      "è´§å¸ģ": 7038,
      "Ġdegree": 7039,
      "Ġthin": 7040,
      "éĵģè·¯": 7041,
      "vered": 7042,
      "ç²®": 7043,
      "Ġderive": 7044,
      "Ġwhose": 7045,
      "dr": 7046,
      "ele": 7047,
      "Ġspatial": 7048,
      "ä»¥ä¾¿": 7049,
      "Ġrespect": 7050,
      "èĬĤçĽ®": 7051,
      "orld": 7052,
      "äºİå¹´": 7053,
      "éĢ»è¾ĳ": 7054,
      "è¹": 7055,
      "åı¯èĥ½æĺ¯": 7056,
      "è®¸åı¯": 7057,
      "æĭĶ": 7058,
      "Ġ\\}": 7059,
      "ä¸»ä½ĵ": 7060,
      "Ġvolu": 7061,
      "é«ĺçº§": 7062,
      "çĮ«": 7063,
      "Ġchemical": 7064,
      "Ġside": 7065,
      ")^\\": 7066,
      "æľ¬æĸĩæĳĺè¦ģ": 7067,
      "Ġactivity": 7068,
      "Ġconse": 7069,
      "Ġleads": 7070,
      "Ġcorrelation": 7071,
      "æµĨ": 7072,
      "ĠRo": 7073,
      "åº¦åĴĮ": 7074,
      "åĩĢåĮĸ": 7075,
      "Ġcannot": 7076,
      "èĲĦ": 7077,
      "When": 7078,
      "åİŁå§ĭ": 7079,
      "å¾ĹåĪ°äºĨ": 7080,
      "Ġindividuals": 7081,
      "Ġsmal": 7082,
      "çļĦåľ°æĸ¹": 7083,
      "åĲĬ": 7084,
      "Ġnetworks": 7085,
      "simeq": 7086,
      "åĲĪå¹¶": 7087,
      "SD": 7088,
      "åįĬå¾Ħ": 7089,
      "\\,,": 7090,
      "ç³»ç»Łä¸Ń": 7091,
      "åľ¨ä¸Ģèµ·": 7092,
      "æĺĮ": 7093,
      "è¿ĽåĪ¶": 7094,
      "æĸ°åŀĭ": 7095,
      "Ġamount": 7096,
      "ably": 7097,
      "ĠCol": 7098,
      "æ¶²ä½ĵ": 7099,
      "izing": 7100,
      "Ġmaintain": 7101,
      "}\\!": 7102,
      "FT": 7103,
      "Ġenough": 7104,
      "ĠEng": 7105,
      "é¥®é£Ł": 7106,
      "Ġcrucial": 7107,
      "æĸ°èĥ½æºĲ": 7108,
      "æ¯ıä¸Ģä¸ª": 7109,
      "Ġsati": 7110,
      "Ġå°ı": 7111,
      "åĪ¶åĵģ": 7112,
      "ĠMo": 7113,
      "Ġvector": 7114,
      "åĲįç§°": 7115,
      "Ġtechnique": 7116,
      "Ġworks": 7117,
      "åŃķ": 7118,
      "å¾Ĳ": 7119,
      "EC": 7120,
      "å±ŀæĢ§": 7121,
      "å¤§äºİ": 7122,
      "ali": 7123,
      "å¹²çĩ¥": 7124,
      "èĩªåĬ¨åĮĸ": 7125,
      "tative": 7126,
      "åģļåĩº": 7127,
      "Ġauto": 7128,
      "æĪĳä»¬åı¯ä»¥": 7129,
      "æľĢå°ı": 7130,
      "}/\\": 7131,
      "åľ°ä½į": 7132,
      "Ġwide": 7133,
      "é¥±": 7134,
      "èĥĥ": 7135,
      ")\\,\\": 7136,
      "Ġcomponent": 7137,
      "é¦Ī": 7138,
      "å®ŀè¡Į": 7139,
      "Ġevents": 7140,
      "å¯¼ä½ĵ": 7141,
      "ä»ĭè´¨": 7142,
      "æīĢéľĢ": 7143,
      "æĵįä½ľåĳĺ": 7144,
      "Ġbur": 7145,
      "Ġphysics": 7146,
      "é¢ĳéģĵ": 7147,
      "reg": 7148,
      "æ£ĢéªĮ": 7149,
      "lig": 7150,
      "sfer": 7151,
      "Ġfas": 7152,
      "Ġpropose": 7153,
      "å®Įç¾İ": 7154,
      "æ¸¸å®¢": 7155,
      "éĢĤçĶ¨": 7156,
      "æĭĴç»Ŀ": 7157,
      "know": 7158,
      "æĽ¿ä»£": 7159,
      "ä¼ļæľī": 7160,
      "è¡Įä¸ļçļĦ": 7161,
      "åĿĩåĮĢ": 7162,
      "Ġavoid": 7163,
      "æģĲ": 7164,
      "å°ĳå¹´": 7165,
      "çł´åĿı": 7166,
      "Ġwin": 7167,
      "Ġou": 7168,
      "Ġclusters": 7169,
      "usion": 7170,
      "å°±èĥ½": 7171,
      "ĠOne": 7172,
      "}&{{": 7173,
      "æĢ»ä½ĵ": 7174,
      "æĶ¶çĽĬ": 7175,
      "åħ¬è·¯": 7176,
      "Ġexamples": 7177,
      "äº§æĿĥ": 7178,
      "æ²ĥ": 7179,
      "Ġcolor": 7180,
      "Ġmotion": 7181,
      "new": 7182,
      "ç©ºè°ĥ": 7183,
      "tero": 7184,
      "Ġusually": 7185,
      "çĬ¶æĢģçļĦ": 7186,
      ".)": 7187,
      "æľºåĻ¨äºº": 7188,
      "åĲĽ": 7189,
      "Ġbuilding": 7190,
      "çĵľ": 7191,
      "åľ¨è¿Ļä¸ª": 7192,
      "æľ±": 7193,
      "è§Ĩè§ī": 7194,
      "mage": 7195,
      "Ġproject": 7196,
      "Ġdays": 7197,
      "where": 7198,
      "Ġreflec": 7199,
      "Ġwar": 7200,
      "æĪ¿å±ĭ": 7201,
      "},}\\": 7202,
      "åĬ²": 7203,
      "æľĢåĪĿ": 7204,
      "ĠåĪĨ": 7205,
      "Ġrather": 7206,
      "è¾ĥå¤§": 7207,
      "ä¸»æĮģ": 7208,
      "Ġmasses": 7209,
      "ä¸Ģå®ļçļĦ": 7210,
      "æĹ¶åĪ»": 7211,
      "å¾Īéļ¾": 7212,
      "èĳ¡èĲĦ": 7213,
      "\\|_": 7214,
      "bes": 7215,
      "Ġquestion": 7216,
      "å°¿": 7217,
      "ç»´æĮģ": 7218,
      "é«ĺæł¡": 7219,
      "\\|^": 7220,
      "è½¬åĮĸ": 7221,
      "hbox": 7222,
      "acks": 7223,
      "éħįå¥Ĺ": 7224,
      "Ġadditional": 7225,
      "åĽ¾çīĩ": 7226,
      "actic": 7227,
      "åİŁæĸĻ": 7228,
      "odes": 7229,
      "è®¿éĹ®": 7230,
      "èĻİ": 7231,
      "Ġrates": 7232,
      "Ġyi": 7233,
      "Ġland": 7234,
      "éħµ": 7235,
      "lan": 7236,
      "Ġlon": 7237,
      "Ġcommunity": 7238,
      "}:=": 7239,
      "æĪĲçļĦ": 7240,
      "çĶµç£ģ": 7241,
      "æĢĿèĢĥ": 7242,
      "Ġsymptoms": 7243,
      "æ»¡æĦı": 7244,
      "ç¼ºä¹ı": 7245,
      "Ġcat": 7246,
      "åĮ»èį¯": 7247,
      "Ġones": 7248,
      "Ġsense": 7249,
      "ek": 7250,
      "Ġsatisf": 7251,
      "åĪĽæĦı": 7252,
      "éĩįéĩı": 7253,
      "place": 7254,
      "cation": 7255,
      "å¹²æī°": 7256,
      "Xi": 7257,
      "|<": 7258,
      "Ġ/": 7259,
      "rans": 7260,
      "ilibri": 7261,
      "åħ¶å®ĥ": 7262,
      "åħļåĳĺ": 7263,
      "Ġasympto": 7264,
      "Ġtext": 7265,
      "å®ŀéĻħä¸Ĭ": 7266,
      "Ġprobability": 7267,
      "æīĭæľ¯": 7268,
      "èĢĮä¸įæĺ¯": 7269,
      "å¨±ä¹Ĳ": 7270,
      "lling": 7271,
      "éľį": 7272,
      "Ġspaces": 7273,
      "Hz": 7274,
      "ä¸įåĨį": 7275,
      "çļĦä¼ģä¸ļ": 7276,
      "åı¯èĥ½æĢ§": 7277,
      "Ġexpon": 7278,
      "æŁľ": 7279,
      "})^{-": 7280,
      "Ġcompan": 7281,
      "å±ĤçļĦ": 7282,
      "iting": 7283,
      "rier": 7284,
      "Ġindependent": 7285,
      "Ġproto": 7286,
      "ressed": 7287,
      "])\\)": 7288,
      "onic": 7289,
      "Ġpolynom": 7290,
      "ĠPo": 7291,
      "çŃĽ": 7292,
      "åĲĪçī©": 7293,
      "åľ¨å¹´": 7294,
      "è£ħä¿®": 7295,
      "Ġapproximation": 7296,
      "åĪĳ": 7297,
      "Ġä½Ĩ": 7298,
      "æĥħç»ª": 7299,
      "priate": 7300,
      "åħļå§Ķ": 7301,
      "ĠSc": 7302,
      "ĠæĹ¥": 7303,
      "ä¸ĢæĿ¡": 7304,
      "å®¶åħ·": 7305,
      "å¾®åŃĲ": 7306,
      "éŃĶ": 7307,
      "propto": 7308,
      "seteq": 7309,
      "Ġéĥ½": 7310,
      "å¦»": 7311,
      "Ġstart": 7312,
      "ç¼ĸçłģ": 7313,
      "æľŁå¾ħ": 7314,
      "Ġthermal": 7315,
      "ç¨¿": 7316,
      "Ġplants": 7317,
      "æ¬²": 7318,
      "Ġhowever": 7319,
      "Ġslow": 7320,
      "ï¼īãĢģ": 7321,
      "å½¼": 7322,
      "åĬ©äºİ": 7323,
      "Ġcoe": 7324,
      "éĵ¸": 7325,
      "Ġwomen": 7326,
      "wise": 7327,
      "æĸĩåŃ¦": 7328,
      "Ġexpan": 7329,
      "nter": 7330,
      "Ġmassive": 7331,
      "èĤ¡ä¸ľ": 7332,
      "åĪ¤æĸŃ": 7333,
      "è®¤åı¯": 7334,
      "tera": 7335,
      "Ġtha": 7336,
      "å®ļåĪ¶": 7337,
      "ĠNe": 7338,
      "_{{\\": 7339,
      "Ġ\\\\&=": 7340,
      "èĲ¥ä¸ļ": 7341,
      "ãĢĳ": 7342,
      "éĺ²æĬ¤": 7343,
      "oney": 7344,
      "Ġlittle": 7345,
      "riend": 7346,
      "Ġred": 7347,
      "seu": 7348,
      "åį°åĪ·": 7349,
      "ç§įç±»": 7350,
      "å¿Ļ": 7351,
      "æŁ¥è¯¢": 7352,
      "æĻ¯åĮº": 7353,
      "Ġequival": 7354,
      "åŃĹç¬¦": 7355,
      "åı¯è§ģ": 7356,
      "é¢ĨåŁŁçļĦ": 7357,
      "ä¸ĢæĹ¦": 7358,
      "ä¸Ĭä¸ĭ": 7359,
      "æĪĳä»¬æĺ¾ç¤º": 7360,
      "åħ¨ä½ĵ": 7361,
      "tire": 7362,
      "æīĢæľīçļĦ": 7363,
      "èĤ¡ç¥¨": 7364,
      "Ġresponse": 7365,
      "bullet": 7366,
      ")|^": 7367,
      "HC": 7368,
      "Ġoptimal": 7369,
      "Ex": 7370,
      "pu": 7371,
      "å¸ķ": 7372,
      "ä¾ĿçĦ¶": 7373,
      "ä¿¡çĶ¨": 7374,
      "Ġ).": 7375,
      "Ġdeep": 7376,
      "Pro": 7377,
      "èĩ´åĬĽäºİ": 7378,
      "{(\\": 7379,
      "ãĢĲ": 7380,
      "èħĶ": 7381,
      "free": 7382,
      "æĺĨ": 7383,
      "ternal": 7384,
      "ç»ĵè®º": 7385,
      "éĽĨä½ĵ": 7386,
      "Ġtaken": 7387,
      "è§ĤçĤ¹": 7388,
      "åį°åº¦": 7389,
      "Ġcalculations": 7390,
      "Ġnoise": 7391,
      "MC": 7392,
      "ĠåıĬ": 7393,
      "äººåľ¨": 7394,
      "ä¼ĺçĤ¹": 7395,
      "ä¼ļåĳĺ": 7396,
      "GN": 7397,
      "Ġweight": 7398,
      "Ġscenari": 7399,
      "cor": 7400,
      "åıĳåĬ¨": 7401,
      "ĠCom": 7402,
      "æİĺ": 7403,
      "Ġ14": 7404,
      "Ġsignificantly": 7405,
      "Ġmat": 7406,
      "åĮºåĪ«": 7407,
      "åĨĴ": 7408,
      "ç»ĵæŀĦçļĦ": 7409,
      "åĩ½æķ°çļĦ": 7410,
      "=|": 7411,
      "ders": 7412,
      "æĸ¹çļĦ": 7413,
      "bitra": 7414,
      "}\\|_{": 7415,
      "æĽ¾ç»ı": 7416,
      "çĽĳæİ§": 7417,
      "Ġstep": 7418,
      "Ġskills": 7419,
      "Ġput": 7420,
      "ĠAu": 7421,
      "Bigg": 7422,
      "Ġasp": 7423,
      "åı¦ä¸Ģä¸ª": 7424,
      "Ġada": 7425,
      "ç±»åŀĭçļĦ": 7426,
      "çļĦåĲĮæĹ¶": 7427,
      "ä¸ĭåįĪ": 7428,
      "åĨ³èµĽ": 7429,
      "You": 7430,
      "rfloor": 7431,
      "super": 7432,
      "Ġnumbers": 7433,
      "cele": 7434,
      "tel": 7435,
      "èĨ¨èĥĢ": 7436,
      "ç¨³å®ļçļĦ": 7437,
      "acu": 7438,
      "Ġalmost": 7439,
      "æĪĳä»¬ä½¿çĶ¨": 7440,
      "Ġemerg": 7441,
      "Ġextra": 7442,
      "åķĬ": 7443,
      "è¥¿åħĥ": 7444,
      "Ġmechanism": 7445,
      "ç«¹": 7446,
      "å±ķè§Ī": 7447,
      "rallel": 7448,
      "å·¡": 7449,
      "çĽĪ": 7450,
      "wave": 7451,
      "pres": 7452,
      "è®¾ç«ĭ": 7453,
      ")&=\\": 7454,
      "æıĲåīį": 7455,
      "elves": 7456,
      "tonian": 7457,
      "ä¸ŃåŃĲ": 7458,
      "å¿ĹæĦ¿": 7459,
      "arth": 7460,
      "æ¸ħæĻ°": 7461,
      "^{*}(": 7462,
      "lor": 7463,
      "å¦Ĥæŀľä½ł": 7464,
      "bur": 7465,
      "Ġgravi": 7466,
      "ä¼łæĦŁåĻ¨": 7467,
      "è°ĭ": 7468,
      "æĪ¿åľ°äº§": 7469,
      "Ġpass": 7470,
      "Ġclassi": 7471,
      "fety": 7472,
      "Ġ13": 7473,
      "ĠNo": 7474,
      "produc": 7475,
      "^*\\": 7476,
      "onom": 7477,
      "è®¾å¤ĩçļĦ": 7478,
      "æ´ª": 7479,
      "Ġagreement": 7480,
      "amental": 7481,
      "å¼¦": 7482,
      "èĢĥèĻĳåĪ°": 7483,
      "è¿Ŀåıį": 7484,
      "éī´å®ļ": 7485,
      "æīĢåľ¨": 7486,
      "ready": 7487,
      "berg": 7488,
      "Ġprovided": 7489,
      "ä½İæ¸©": 7490,
      "åĬŀåħ¬å®¤": 7491,
      "Ġ]": 7492,
      "ght": 7493,
      "Ġproduce": 7494,
      "roup": 7495,
      "tually": 7496,
      "ç¡ķ": 7497,
      "Ġspeed": 7498,
      "Ġopportu": 7499,
      "sy": 7500,
      "éª¤": 7501,
      "èĩªè¡Į": 7502,
      "æµħ": 7503,
      "å¤¹": 7504,
      "çī¢": 7505,
      "Ġforce": 7506,
      "è¿Ľç¨ĭ": 7507,
      "Ġåĩº": 7508,
      "Ġlab": 7509,
      "Ġreason": 7510,
      "lfloor": 7511,
      "èĸª": 7512,
      "Ġprofi": 7513,
      "çĽ´åĪ°": 7514,
      "}'": 7515,
      "èħ¹": 7516,
      "Ġability": 7517,
      "Ġespecially": 7518,
      "ĠWhile": 7519,
      "fully": 7520,
      "è¿ĺåı¯ä»¥": 7521,
      "æĦŁè°¢": 7522,
      "æıĲäº¤": 7523,
      "ked": 7524,
      "è¿ĳæľŁ": 7525,
      "gi": 7526,
      "ĠLet": 7527,
      "mas": 7528,
      "}|^{": 7529,
      "åĴĮåħ¶ä»ĸ": 7530,
      "å¤§æ°Ķ": 7531,
      "æĭĽçĶŁ": 7532,
      ")ï¼Į": 7533,
      "Ġconstruction": 7534,
      "åİ¨": 7535,
      "AL": 7536,
      "oud": 7537,
      "è¾ħåĬ©": 7538,
      "åĲĮæĦı": 7539,
      "çĶµèį·": 7540,
      "Ġ\\,\\": 7541,
      "yste": 7542,
      "cm": 7543,
      "å°Ĩåħ¶": 7544,
      "åįĵ": 7545,
      "ç¡«": 7546,
      "ĠIts": 7547,
      "3333": 7548,
      "tention": 7549,
      "å½ĵä¸Ń": 7550,
      "æľĢæĸ°": 7551,
      "nced": 7552,
      "crip": 7553,
      "ĠJu": 7554,
      "åľŁå£¤": 7555,
      "van": 7556,
      "éĹª": 7557,
      "Ġscheme": 7558,
      "å¿«ä¹Ĳ": 7559,
      "orth": 7560,
      "åı°æ¹¾": 7561,
      "|_{\\": 7562,
      "ä¼ļä¸Ĭ": 7563,
      "æł¡åĽŃ": 7564,
      "èµĦè®¯": 7565,
      "å¥ī": 7566,
      "Ġä»ĸ": 7567,
      "ç´§åĩĳ": 7568,
      "èµ¶": 7569,
      "æĮ¯å¹ħ": 7570,
      "æ¶Īå¤±": 7571,
      "ç½©": 7572,
      "Ġ200": 7573,
      "ä»¶çļĦ": 7574,
      "ç»ĨèĬĤ": 7575,
      "æ²³åįĹ": 7576,
      "æķħéļľ": 7577,
      "Ġ{{": 7578,
      "å¤§å¹ħ": 7579,
      "åĪ©äºļ": 7580,
      "Ġtaking": 7581,
      "osition": 7582,
      "å¹³æĸ¹ç±³": 7583,
      "Ġvo": 7584,
      "Ġlumino": 7585,
      "éĥ¨çļĦ": 7586,
      "paga": 7587,
      "arent": 7588,
      "äºļæ´²": 7589,
      "Ġdetermined": 7590,
      "gest": 7591,
      "Ġampl": 7592,
      "Ġreli": 7593,
      "çŃīç¦»åŃĲ": 7594,
      "**": 7595,
      "åľ°åĽ¾": 7596,
      "æľīè¶£": 7597,
      "Ġeducation": 7598,
      "Sp": 7599,
      "Ġsure": 7600,
      "çĻ½æĸĳ": 7601,
      "å»ī": 7602,
      "Ġmagn": 7603,
      "eric": 7604,
      "Ġå°±": 7605,
      "ï½": 7606,
      "æ¼Ķåıĺ": 7607,
      "æ¡ĥ": 7608,
      "Ġdynamical": 7609,
      "ĠAmerican": 7610,
      "Ġupper": 7611,
      "overy": 7612,
      "EM": 7613,
      "éĥ½åľ¨": 7614,
      "Ġmomentum": 7615,
      "æķ¢": 7616,
      "Ġencou": 7617,
      "ä½ľåĩº": 7618,
      "èĩ³ä»Ĭ": 7619,
      "Ġcre": 7620,
      "Ġbasis": 7621,
      "AD": 7622,
      "Ġunit": 7623,
      "æī¹åĩĨ": 7624,
      "Ġrelev": 7625,
      "å°½éĩı": 7626,
      "æĻ¶ä½ĵ": 7627,
      "ç©·": 7628,
      "Ġtools": 7629,
      "Ġna": 7630,
      "Ġtransport": 7631,
      "omorph": 7632,
      "Ġhighly": 7633,
      "çŁ³æ²¹": 7634,
      "ale": 7635,
      "çĽ¸åıį": 7636,
      "Ġperform": 7637,
      "è¿Ī": 7638,
      "ç¦»å¼Ģ": 7639,
      "CC": 7640,
      "yl": 7641,
      "å½¹": 7642,
      "æĸ¯çī¹": 7643,
      "Ġaway": 7644,
      "ä¹¡æĿĳ": 7645,
      "Ġ\\(\\{|": 7646,
      "æĬĽ": 7647,
      "å¾Īå¥½": 7648,
      "éĴ»": 7649,
      "æ»ļ": 7650,
      "_{|": 7651,
      "éģĩåĪ°": 7652,
      "éĥ¨ç½²": 7653,
      "})\\]": 7654,
      "ney": 7655,
      "stric": 7656,
      "amil": 7657,
      "zz": 7658,
      "Ġbenefits": 7659,
      "Ġcu": 7660,
      "|_": 7661,
      "Ġthink": 7662,
      "forma": 7663,
      "è¥¿çıŃ": 7664,
      "äºĮè¿ĽåĪ¶": 7665,
      "åĬłå¤§": 7666,
      "åĩłå¹´": 7667,
      "çĶŁæ´»ä¸Ń": 7668,
      "æ¨¡åŀĭä¸Ń": 7669,
      "Ġresources": 7670,
      "Ġrest": 7671,
      "Ġdont": 7672,
      "æĿĥåĪ©": 7673,
      "change": 7674,
      "energy": 7675,
      "æĹģ": 7676,
      "versal": 7677,
      "çļĦåīį": 7678,
      "æĢª": 7679,
      "semb": 7680,
      "sa": 7681,
      "æĮ¤": 7682,
      "ilibrium": 7683,
      "å®ĭ": 7684,
      "æĬķèµĦèĢħ": 7685,
      "éļľç¢į": 7686,
      "func": 7687,
      "å°Ķé¡¿": 7688,
      "Ġcode": 7689,
      "å¯Ħ": 7690,
      "hol": 7691,
      "Ġheart": 7692,
      "ç½Ĺé©¬": 7693,
      "æĬĳåĪ¶": 7694,
      "2017": 7695,
      "Ġ30": 7696,
      "ç²¾åº¦": 7697,
      "Ġä¸ŃåĽ½": 7698,
      "åĽŃåĮº": 7699,
      "flow": 7700,
      "æ¯ģ": 7701,
      "Ġbrain": 7702,
      ")_{\\": 7703,
      "å¾½": 7704,
      "Ġ17": 7705,
      "éĶ¡": 7706,
      "Ġworking": 7707,
      "Ġstrongly": 7708,
      "oks": 7709,
      "å¹¼åĦ¿": 7710,
      "é¤Ĳé¥®": 7711,
      "han": 7712,
      "æĪªèĩ³": 7713,
      "äººä½ĵ": 7714,
      "seudo": 7715,
      "éĢıè¿ĩ": 7716,
      "éĥ½ä¸į": 7717,
      "ncy": 7718,
      "Ġscalar": 7719,
      "Ġhelps": 7720,
      "Ġarbitra": 7721,
      "Ġshape": 7722,
      "è¾ĥä½İ": 7723,
      "lications": 7724,
      "sities": 7725,
      "lished": 7726,
      "Ġtry": 7727,
      "Ġgives": 7728,
      "æįĲ": 7729,
      "æµ¸": 7730,
      "èĶ¬": 7731,
      "Ġfixed": 7732,
      "éĢĥ": 7733,
      "Ġincludes": 7734,
      "çĶ³æĬ¥": 7735,
      "PP": 7736,
      "èī²å½©": 7737,
      "lescop": 7738,
      "Ġposition": 7739,
      "Ġclean": 7740,
      "ified": 7741,
      "Ġneeded": 7742,
      "åĨ³çŃĸ": 7743,
      "èĭ¥å¹²": 7744,
      "åı¥è¯Ŀ": 7745,
      "ä»Ķ": 7746,
      "æĬ±": 7747,
      "Ġradiation": 7748,
      "å£°éŁ³": 7749,
      "Ġexplore": 7750,
      "ki": 7751,
      "çĻ¾åĪĨ": 7752,
      "è®©æĪĳä»¬": 7753,
      "Ġmetric": 7754,
      "åĩī": 7755,
      "ĠæĢ§": 7756,
      "Ġreds": 7757,
      "å·¥ä½ľäººåĳĺ": 7758,
      "Ġdifference": 7759,
      "Ġnegative": 7760,
      "ç´¯è®¡": 7761,
      "faces": 7762,
      "æĸ°åĨł": 7763,
      "Ġproof": 7764,
      "æĿŃ": 7765,
      "æ¡Į": 7766,
      "6667": 7767,
      "tiliz": 7768,
      "Ġhealthy": 7769,
      "300": 7770,
      "çļĦä¸Ģç§į": 7771,
      "earch": 7772,
      "length": 7773,
      "ĠSch": 7774,
      "å¸¸æķ°": 7775,
      "åĬĽåŃ¦": 7776,
      "åĮºåĿĹ": 7777,
      "genera": 7778,
      "ĠUniversity": 7779,
      "å¹¶ä¸įæĺ¯": 7780,
      "å¤ļæ¬¡": 7781,
      "multi": 7782,
      "ĠAI": 7783,
      "Ġgrea": 7784,
      "ä¼ĺåħĪ": 7785,
      "èµģ": 7786,
      "Ġresulting": 7787,
      "åĪ«äºº": 7788,
      "æŀĦéĢł": 7789,
      "oking": 7790,
      "æĢ»ç»ıçĲĨ": 7791,
      "Ġmarket": 7792,
      "Ġmach": 7793,
      "ä¸īç»´": 7794,
      "æ¬£": 7795,
      "Ġvio": 7796,
      "Ġ..": 7797,
      "æĪĺäºī": 7798,
      "Ġconfir": 7799,
      "çĺ¤": 7800,
      "çļĦè¦ģæ±Ĥ": 7801,
      "äºĮç»´": 7802,
      "ç«ĭåį³": 7803,
      "åģıå·®": 7804,
      "å±Ĥæ¬¡": 7805,
      "Ġbig": 7806,
      "å¦Ļ": 7807,
      "äº¿ç¾İåħĥ": 7808,
      "å°ıç¼ĸ": 7809,
      "è®ºåĿĽ": 7810,
      "leep": 7811,
      "åħįçĸ«": 7812,
      "Ġang": 7813,
      "æĭĽèģĺ": 7814,
      "uv": 7815,
      "éĵ¾æİ¥": 7816,
      "Ġdetection": 7817,
      "ĠPh": 7818,
      "asy": 7819,
      "tz": 7820,
      "é«ĺç«¯": 7821,
      "ä¿±ä¹Ĳ": 7822,
      "Ġèĥ½": 7823,
      "éŁ©åĽ½": 7824,
      "urope": 7825,
      "é«ĺäºİ": 7826,
      "åĽ½åĬ¡": 7827,
      "hood": 7828,
      "åħ¸åŀĭ": 7829,
      "éĹ´çļĦ": 7830,
      "æĲ¬": 7831,
      "tition": 7832,
      "æ·ĺ": 7833,
      "kl": 7834,
      "çĶ±æŃ¤": 7835,
      "æķ°åŃĹåĮĸ": 7836,
      "Ġproduced": 7837,
      "é¡¾å®¢": 7838,
      "ä¾ĿèµĸæĢ§": 7839,
      "Ġaccurate": 7840,
      "ah": 7841,
      "å¾Īå¤§çļĦ": 7842,
      "æ©¡": 7843,
      "æľ¯è¯Ń": 7844,
      "é£İæľº": 7845,
      "çĦĬæİ¥": 7846,
      "Ġclear": 7847,
      "mun": 7848,
      "æ³ķçļĦ": 7849,
      "Ġcontent": 7850,
      "Ġoperators": 7851,
      "Ġcheck": 7852,
      "è¥¿çıŃçīĻ": 7853,
      "Ġdouble": 7854,
      "Ġmedic": 7855,
      "å¦Īå¦Ī": 7856,
      "æ°®": 7857,
      "cur": 7858,
      "èµĶ": 7859,
      "ĠTe": 7860,
      "ib": 7861,
      "èī²çļĦ": 7862,
      "Ch": 7863,
      "fect": 7864,
      "ĠåĨħ": 7865,
      "æķĪçĽĬ": 7866,
      "æ²Ī": 7867,
      "ä»¥ä¸º": 7868,
      "åĽ¾ä¹¦": 7869,
      "mentation": 7870,
      "çī§": 7871,
      "Ġrecom": 7872,
      "åıĳè¡Į": 7873,
      "SP": 7874,
      "ĠHu": 7875,
      "Ġmini": 7876,
      "ered": 7877,
      "æĸ¹ä½į": 7878,
      "ĠMe": 7879,
      "æıĲåıĸ": 7880,
      "ä¼½é©¬": 7881,
      "ĠHa": 7882,
      "æŃ¦æ±ī": 7883,
      "Ġnutri": 7884,
      "varian": 7885,
      "ç§Łèµģ": 7886,
      "Ġcore": 7887,
      "å¾Īå¤ļäºº": 7888,
      "biggl": 7889,
      "ĠII": 7890,
      "å§Ĳ": 7891,
      "å·¨å¤§": 7892,
      "yond": 7893,
      "çīµ": 7894,
      "Ġdimensional": 7895,
      "èŀºæĹĭ": 7896,
      "Ġleft": 7897,
      "Ġformal": 7898,
      "æŁĲç§į": 7899,
      "ages": 7900,
      "å¤§æķ°æį®": 7901,
      "èħĬ": 7902,
      "ading": 7903,
      "åįģå¹´": 7904,
      "åŀĤçĽ´": 7905,
      "Ġlink": 7906,
      "Ġcompact": 7907,
      "Ġtor": 7908,
      "ç¾İä¸½": 7909,
      "Ġdone": 7910,
      "Ġsuggest": 7911,
      "æİ¢æµĭåĻ¨": 7912,
      "Ġthera": 7913,
      "ï¼İ": 7914,
      "Ġforms": 7915,
      "çļĦçłĶç©¶": 7916,
      "ä¸Ģæ®µ": 7917,
      "çĶµåķĨ": 7918,
      "æģĭ": 7919,
      "çļĦå¯¹": 7920,
      "æ··åĩĿ": 7921,
      "å¼ºå¤§çļĦ": 7922,
      "ä»Ļ": 7923,
      "è¾ĵéĢģ": 7924,
      "æĽ´é«ĺ": 7925,
      "éĩįå¤į": 7926,
      "çļĨ": 7927,
      "Ġéĩı": 7928,
      "å¤©æ°Ķ": 7929,
      "Ġskin": 7930,
      "å¤§è§Ħæ¨¡": 7931,
      "self": 7932,
      "ä¼ļè®¡": 7933,
      "éĨĩ": 7934,
      "biggr": 7935,
      "åºĶæĢ¥": 7936,
      "è¾ĥé«ĺ": 7937,
      "subseteq": 7938,
      "ĠFinally": 7939,
      "åĤ¬": 7940,
      "æĢĿç»´": 7941,
      "éĽ¶åĶ®": 7942,
      "Ġgravity": 7943,
      "å¤ĸè§Ĥ": 7944,
      "DM": 7945,
      "Ġbasic": 7946,
      "çļĦå¥½": 7947,
      "Ġintroduced": 7948,
      "cle": 7949,
      "Ġfamili": 7950,
      "Ġpost": 7951,
      "ä¸įéĶĻ": 7952,
      "å¤įæĿĤçļĦ": 7953,
      "æŃ£æĺ¯": 7954,
      "sur": 7955,
      "éªĮè¯ģ": 7956,
      "known": 7957,
      "Le": 7958,
      "Ġprog": 7959,
      "Ġmid": 7960,
      "å¯ĨåĪĩ": 7961,
      "æ¦Ĥæĭ¬": 7962,
      "stackrel": 7963,
      "æ§½": 7964,
      "ĠæľĪ": 7965,
      "åľºæ¯ĶèµĽ": 7966,
      "çļĦåħī": 7967,
      "æľĢå¥½": 7968,
      "åħ±åĴĮåĽ½": 7969,
      "çĶµæľº": 7970,
      "åħĪåĲİ": 7971,
      "äº§éĩı": 7972,
      "})+\\": 7973,
      "éĥ½åı¯ä»¥": 7974,
      "ounds": 7975,
      "åı¯æĺ¯": 7976,
      "æĦŁåĪ°": 7977,
      "Ġconcent": 7978,
      "ww": 7979,
      "Ġå½ĵ": 7980,
      "body": 7981,
      "Ġalpha": 7982,
      "æº¶æ¶²": 7983,
      "ä¿ĿçķĻ": 7984,
      "çĽ¸å½ĵäºİ": 7985,
      "åıĤéĺħ": 7986,
      "èĿ": 7987,
      "Ġextended": 7988,
      "åĽŀåºĶ": 7989,
      "èĻļæĭŁ": 7990,
      "æī©å¼ł": 7991,
      "Ġplas": 7992,
      "ĠæĹł": 7993,
      "Ġcate": 7994,
      "æļĹçī©è´¨": 7995,
      "äººçĶŁ": 7996,
      "Ġpast": 7997,
      "åį±å®³": 7998,
      "åľ¨æľ¬": 7999,
      "æ¼Ĥ": 8000,
      "æŃ£è§Ħ": 8001,
      "ä¸ĵé¡¹": 8002,
      "Ġheavy": 8003,
      "Ġdust": 8004,
      "ç½Ĳ": 8005,
      "mogene": 8006,
      "Ġentangle": 8007,
      "çŃīæĸ¹éĿ¢": 8008,
      "Ġå·¥ä½ľ": 8009,
      "æ³¨éĩį": 8010,
      "ologies": 8011,
      "æľºåľº": 8012,
      "çļĦä¿¡æģ¯": 8013,
      "æ³Ħ": 8014,
      "Ġtowards": 8015,
      "eds": 8016,
      "Ġhea": 8017,
      "Ġsmooth": 8018,
      "GB": 8019,
      "maliz": 8020,
      "åĪĨæķ°": 8021,
      "Ġmodes": 8022,
      "è¯ĬæĸŃ": 8023,
      "ç§įæ¤į": 8024,
      "pho": 8025,
      "çĥ¦": 8026,
      "éĩĬæĶ¾": 8027,
      "Ġoverall": 8028,
      "Ġcourse": 8029,
      "Ġmolecular": 8030,
      "Ġcarbon": 8031,
      "ĠUnited": 8032,
      "çĽ¾": 8033,
      "çļĦåİŁåĽł": 8034,
      "é¢ģ": 8035,
      "Ġgenerated": 8036,
      "åįµ": 8037,
      "Ġmaximum": 8038,
      "Ġcancer": 8039,
      "Ġarg": 8040,
      "è½»æĿ¾": 8041,
      "elling": 8042,
      "å®¶çļĦ": 8043,
      "Ġalready": 8044,
      "Ġcomes": 8045,
      "Ġregime": 8046,
      "Ġpatients": 8047,
      "Ġmanu": 8048,
      "Ġtemperatures": 8049,
      "Ġfundamental": 8050,
      "Ġwhite": 8051,
      "mend": 8052,
      "}}&{": 8053,
      "Ġconstraints": 8054,
      "æ½ľåľ¨": 8055,
      "åŃ¦ä½į": 8056,
      "Ġdistributions": 8057,
      "Tr": 8058,
      "ä¸ļç»©": 8059,
      "bigoplus": 8060,
      "ä¼ĺæĥł": 8061,
      "éĻ¢æł¡": 8062,
      "çļĦè®¾è®¡": 8063,
      "æĶ¾æĿ¾": 8064,
      "åį¢": 8065,
      "Ġactivities": 8066,
      "Ġè¯¥": 8067,
      "Ġparts": 8068,
      "ä¿ĿåŃĺ": 8069,
      "Ġgene": 8070,
      "åįģäºĮ": 8071,
      "Ġstable": 8072,
      "frared": 8073,
      "'=": 8074,
      "tists": 8075,
      "Ġextreme": 8076,
      "å¼ķåıĳ": 8077,
      "Ġintegral": 8078,
      "çļĦåı¯": 8079,
      "ç»ĳ": 8080,
      "çĸı": 8081,
      "bs": 8082,
      "å·®è·Ŀ": 8083,
      "æĪĸæĺ¯": 8084,
      "mately": 8085,
      "mption": 8086,
      "æµ·å¤ĸ": 8087,
      "lm": 8088,
      "å¾ĭå¸Ī": 8089,
      "Ġè¿ĺ": 8090,
      "å±ħä½ı": 8091,
      "),\\\\": 8092,
      "é«ĺåİĭ": 8093,
      "lier": 8094,
      "DF": 8095,
      "çļĦæĹł": 8096,
      "quences": 8097,
      "ba": 8098,
      "æĬķæłĩ": 8099,
      "éĤĢè¯·": 8100,
      "ystal": 8101,
      "Ġapply": 8102,
      "Ġsetting": 8103,
      "Ġinterest": 8104,
      "å¥ĳ": 8105,
      "åĪĻæĺ¯": 8106,
      "Ġtransfer": 8107,
      "èĢĢ": 8108,
      "æŀĿ": 8109,
      "æ¹ĸåįĹ": 8110,
      "Ġengine": 8111,
      "}}_": 8112,
      "Ġsens": 8113,
      "Ġauthor": 8114,
      "Ġprofession": 8115,
      "åģľæŃ¢": 8116,
      "éķĢ": 8117,
      "Ġservices": 8118,
      "}_{-": 8119,
      "ä¸Ģä½į": 8120,
      "éĺ¿å°Ķ": 8121,
      "ç²¾åĩĨ": 8122,
      "tity": 8123,
      "Ġuntil": 8124,
      "Ġproperty": 8125,
      "ots": 8126,
      "éĩĮéĿ¢": 8127,
      "ä»¥ä¸ĬçļĦ": 8128,
      "èĢĥæł¸": 8129,
      "æĪĲäºĨ": 8130,
      "aries": 8131,
      "ä¹Łåľ¨": 8132,
      "èµł": 8133,
      "éĢĬ": 8134,
      "æĺ¯æľĢ": 8135,
      "Ġwords": 8136,
      "dd": 8137,
      "çļĦæ°´": 8138,
      "check": 8139,
      "ĠWhat": 8140,
      "èĤĿ": 8141,
      "ĠDis": 8142,
      "çŁ³å¢¨": 8143,
      "ä¼ª": 8144,
      "cons": 8145,
      "off": 8146,
      "ĠOr": 8147,
      "Ġplanet": 8148,
      "ĠAf": 8149,
      "})}{": 8150,
      "Ġä¸ī": 8151,
      "GC": 8152,
      "Ġhim": 8153,
      "Ġnuclear": 8154,
      "å¿§": 8155,
      "è§Ħæł¼": 8156,
      "æµĵåº¦": 8157,
      "Ġul": 8158,
      "ä¼ļåľ¨": 8159,
      "æĭĸ": 8160,
      "åİĺ": 8161,
      "çī©çĲĨåŃ¦": 8162,
      "å¯Ĩå°ģ": 8163,
      "Ġperformed": 8164,
      "Ġsets": 8165,
      "åıĳéħµ": 8166,
      "åºĶå¯¹": 8167,
      "ç¾¤ä½ĵ": 8168,
      "Ġuseful": 8169,
      "éĿ¢åĲĳ": 8170,
      "ä¹ĥ": 8171,
      "={\\": 8172,
      "exists": 8173,
      "Ġ),": 8174,
      "}}}{": 8175,
      "}}_{\\": 8176,
      "},\\,": 8177,
      "åįļçī©": 8178,
      "ising": 8179,
      "å°ıäºİ": 8180,
      "å¹³çŃī": 8181,
      "å¤©æ´¥": 8182,
      "æķĮ": 8183,
      "ä¼łç»ŁçļĦ": 8184,
      "},\\\\": 8185,
      "Ġlot": 8186,
      "Ġå¯¹äºİ": 8187,
      "ç¼ĸè¾ĳ": 8188,
      "å·¥èµĦ": 8189,
      "Ġimage": 8190,
      "èĪĴéĢĤ": 8191,
      "Ġquark": 8192,
      "ä»ĸåľ¨": 8193,
      "uments": 8194,
      "çħ§çīĩ": 8195,
      "Ġentire": 8196,
      "Ġmind": 8197,
      "äººçī©": 8198,
      "Ġestimate": 8199,
      "å¤§åĬĽ": 8200,
      "çĹħæĥħ": 8201,
      "teria": 8202,
      "Ġconstruct": 8203,
      "choose": 8204,
      "æŃ¥éª¤": 8205,
      "ç¨į": 8206,
      "Ġgravitational": 8207,
      "These": 8208,
      "Ġalterna": 8209,
      "è§ĤæµĭåĪ°çļĦ": 8210,
      "'t": 8211,
      "Ġpolic": 8212,
      "lator": 8213,
      "Ġtheorem": 8214,
      "blacktriangle": 8215,
      "Ġaccre": 8216,
      "å¼ĢåĲ¯": 8217,
      "åĽ½åĬ¡éĻ¢": 8218,
      "pos": 8219,
      "Ġactive": 8220,
      "Ġwhole": 8221,
      "Ġ^{\\": 8222,
      "Ġdescription": 8223,
      "æİĪæĿĥ": 8224,
      "å°¼äºļ": 8225,
      "æĻĭ": 8226,
      "ĠFurther": 8227,
      "ä¸Ĭæ¶¨": 8228,
      "éĺĶ": 8229,
      "æĹ¶å°ļ": 8230,
      "Ġconfigu": 8231,
      "Ġefficient": 8232,
      "ä»ªå¼ı": 8233,
      "\\\\&": 8234,
      "åıįå°Ħ": 8235,
      "Ġassess": 8236,
      "play": 8237,
      "Ġappropriate": 8238,
      "ä¸ĭè½½": 8239,
      "}+(": 8240,
      "æ¯Ķçİĩ": 8241,
      "è¾ĥä¸º": 8242,
      "\\|_{\\": 8243,
      "å®ŀæĹ¶": 8244,
      "åİĮ": 8245,
      "æľĽè¿ľ": 8246,
      "è®¾å®ļ": 8247,
      "ĠPre": 8248,
      "ustom": 8249,
      "Ġdifficult": 8250,
      "çľł": 8251,
      "flu": 8252,
      "æĶ»åĩ»": 8253,
      "åİ¦": 8254,
      "Ġsmaller": 8255,
      "pc": 8256,
      "Ġkine": 8257,
      "åľ¨ä¸ŃåĽ½": 8258,
      "Ma": 8259,
      "è¾©": 8260,
      "uting": 8261,
      "Ġmanagement": 8262,
      "éĿ©åĳ½": 8263,
      "çļĦä¸»": 8264,
      "Ġreduced": 8265,
      "çºº": 8266,
      "\\,-\\,": 8267,
      "æľīæĹ¶": 8268,
      "anti": 8269,
      "rank": 8270,
      "å¹»": 8271,
      "éĻª": 8272,
      "æĭįæĳĦ": 8273,
      "Ġsafe": 8274,
      "ley": 8275,
      "åħ¬çĽĬ": 8276,
      "Ġimages": 8277,
      "Ġdevices": 8278,
      "ç¼ºéĻ·": 8279,
      "æ¶ĤæĸĻ": 8280,
      "ections": 8281,
      "Ġç»ĵæŀľ": 8282,
      "èĩªæ²»": 8283,
      "Ġtraining": 8284,
      "quid": 8285,
      "æıĲéĨĴ": 8286,
      "Ġtheories": 8287,
      "çģµæ´»": 8288,
      "åı¦ä¸Ģæĸ¹éĿ¢": 8289,
      "å¼ķè¿Ľ": 8290,
      "Ġpersonal": 8291,
      "alls": 8292,
      ".\"": 8293,
      "Ġtoday": 8294,
      "æĢģåº¦": 8295,
      "æµı": 8296,
      "éĶ¦": 8297,
      "ç£·": 8298,
      "Ġhalf": 8299,
      "Ġexpansion": 8300,
      "äººæķ°": 8301,
      "è¾½": 8302,
      "mination": 8303,
      "Ġincreased": 8304,
      "Ġmedical": 8305,
      "tate": 8306,
      "åľ°çĤ¹": 8307,
      "Ġquick": 8308,
      "å¥¹çļĦ": 8309,
      "Ġbr": 8310,
      "ĠDo": 8311,
      "Ġonline": 8312,
      "So": 8313,
      "eth": 8314,
      "å¾Īå®¹æĺĵ": 8315,
      "å·¨å¤§çļĦ": 8316,
      "ĠRec": 8317,
      "åıįé¦Ī": 8318,
      "éĶĮ": 8319,
      "æµ´": 8320,
      "Ġteam": 8321,
      "ises": 8322,
      "åĽŀåĪ°": 8323,
      "Ġmath": 8324,
      "isot": 8325,
      "supset": 8326,
      "çĬ¹": 8327,
      "æĿĲæĸĻçļĦ": 8328,
      "çĽ®å½ķ": 8329,
      "Ġfunctional": 8330,
      "~{": 8331,
      "herent": 8332,
      "itable": 8333,
      "æĸ°æĬĢæľ¯": 8334,
      "Ġextrac": 8335,
      "æĥ³æ³ķ": 8336,
      "æıĲä¾ĽçļĦ": 8337,
      "æľīå¾Īå¤ļ": 8338,
      "Ġmem": 8339,
      "Ġæķ°": 8340,
      "RB": 8341,
      "ffere": 8342,
      "æĭĵå±ķ": 8343,
      "ä¸įç®¡": 8344,
      "ç´łè´¨": 8345,
      "Ġinfinite": 8346,
      "ulations": 8347,
      "éĢıæĺİ": 8348,
      ">\\": 8349,
      "Ġpopular": 8350,
      "åľ°çļĦ": 8351,
      "äººå·¥æĻºèĥ½": 8352,
      "\\}\\\\": 8353,
      ")}&{{": 8354,
      "åĲ¦åĪĻ": 8355,
      "ä¹Ķ": 8356,
      "çĭĹ": 8357,
      "Ġrequires": 8358,
      "å±ĳ": 8359,
      "ç£ģæĢ§": 8360,
      "Ġintroduce": 8361,
      "æµ¦": 8362,
      "Ġalgorithms": 8363,
      "éĥ½èĥ½": 8364,
      "æħİ": 8365,
      "Ġdirectly": 8366,
      "Ġillust": 8367,
      "äºĨä¸Ģç§į": 8368,
      "}([": 8369,
      "åĮºçļĦ": 8370,
      "å¤©çļĦ": 8371,
      "èĥĨ": 8372,
      "}})": 8373,
      "é»Ħéĩĳ": 8374,
      "Ġinvestigated": 8375,
      "Ġefficiency": 8376,
      "Ġclimate": 8377,
      "Ġcirc": 8378,
      "Ġscience": 8379,
      "Ġbran": 8380,
      "ults": 8381,
      "åĭŁ": 8382,
      ")ãĢĤ": 8383,
      "åĴĸ": 8384,
      "æĿ¡ä»¶ä¸ĭ": 8385,
      "ç¢±": 8386,
      "ĠåŃĲ": 8387,
      "çĭ¬çī¹çļĦ": 8388,
      "Ġoffic": 8389,
      "åį«æĺŁ": 8390,
      "SM": 8391,
      "éĥ¨ä½į": 8392,
      "Ġuses": 8393,
      "Ġfive": 8394,
      "Ġelement": 8395,
      "ĠSe": 8396,
      "ä¸Ģæĺ¯": 8397,
      "ĠSa": 8398,
      "ä¸ĩåĲ¨": 8399,
      "éĢłæĪĲçļĦ": 8400,
      "çļĦåŁºæľ¬": 8401,
      "2016": 8402,
      "å®¡æł¸": 8403,
      "tivistic": 8404,
      "'_{": 8405,
      "èµĽäºĭ": 8406,
      "åŃ¤": 8407,
      "ä¿Ħç½Ĺæĸ¯": 8408,
      "å°Ŀè¯ķ": 8409,
      "ä¹ĭä¸Ń": 8410,
      "KL": 8411,
      "éĺ³åħī": 8412,
      "çĨŁæĤī": 8413,
      "åľ¨ä¸Ģä¸ª": 8414,
      "æķ¦": 8415,
      "æĹħè¡Į": 8416,
      "normal": 8417,
      "ĠEurope": 8418,
      "ä¿¡å¿ĥ": 8419,
      "åį³å°Ĩ": 8420,
      "åľ¨ä¸Ĭ": 8421,
      "rial": 8422,
      "å¼ķé¢Ĩ": 8423,
      "ä¸ĸçķĮæĿ¯": 8424,
      "Ġaccording": 8425,
      "Ġachieve": 8426,
      "Ġreveal": 8427,
      "Ġsays": 8428,
      "Ġgovernment": 8429,
      "Ġsustain": 8430,
      "æľŁæľĽ": 8431,
      "æĭĽæłĩ": 8432,
      "Ġbook": 8433,
      "ä¸Ģä»£": 8434,
      "ä¸īå¹´": 8435,
      "è¥¿äºļ": 8436,
      "Ġlet": 8437,
      "Ġrelative": 8438,
      "ĠBo": 8439,
      "æ··åĩĿåľŁ": 8440,
      "ided": 8441,
      "Ġdiet": 8442,
      "Ġpic": 8443,
      "Ġbreak": 8444,
      "Ġidea": 8445,
      "æĹłçº¿çĶµ": 8446,
      "olved": 8447,
      "è¾ĸ": 8448,
      "è¿Ŀæ³ķ": 8449,
      "Ġpropaga": 8450,
      "äºĭåĬ¡": 8451,
      "Ġmap": 8452,
      "stro": 8453,
      "Ġerror": 8454,
      "æľĽè¿ľéķľ": 8455,
      "PA": 8456,
      "TT": 8457,
      "cr": 8458,
      "çļĦå¿ĥ": 8459,
      "çļĦè´¨éĩı": 8460,
      "Ġhol": 8461,
      "Ġåħ¬åı¸": 8462,
      "åįķåħĥ": 8463,
      "ä½ıæĪ¿": 8464,
      "Ġangle": 8465,
      "hips": 8466,
      "ĠPla": 8467,
      "Ġæ¨¡åŀĭ": 8468,
      "Ġinsu": 8469,
      "dle": 8470,
      "Ġrapid": 8471,
      "ç´«å¤ĸ": 8472,
      "}<\\": 8473,
      "Ġmeasures": 8474,
      "iggs": 8475,
      "å®½åº¦": 8476,
      "èµ¢å¾Ĺ": 8477,
      "Ġcontact": 8478,
      "}]\\)": 8479,
      ")}+": 8480,
      "çĶŁç´ł": 8481,
      "æ¡Īä»¶": 8482,
      "ference": 8483,
      "Ġdesigned": 8484,
      "ĠSi": 8485,
      "å¾Īå¥½çļĦ": 8486,
      "ures": 8487,
      "Ġsomething": 8488,
      "Ġlater": 8489,
      "ç¬¦åı·": 8490,
      "Ġcover": 8491,
      "Ġrecogni": 8492,
      "ä¸ªæĢ§": 8493,
      "èģĬ": 8494,
      "æ»¨": 8495,
      "Ġcapac": 8496,
      "Ġanalyze": 8497,
      "è§Ħå®ļçļĦ": 8498,
      "åĹ": 8499,
      "Ġdistin": 8500,
      "ĠQu": 8501,
      "çĸ«æĥħéĺ²æİ§": 8502,
      "å¸¦æĿ¥çļĦ": 8503,
      "å¤ļæł·": 8504,
      "ç¿»è¯ĳ": 8505,
      "Ġinfluence": 8506,
      "Ġtre": 8507,
      "æľ¬ç§ĳ": 8508,
      "tories": 8509,
      "èĭ¯": 8510,
      "çĨĶ": 8511,
      "pol": 8512,
      "å§Ķæīĺ": 8513,
      ")<": 8514,
      "Ġå®ĥ": 8515,
      "å§Ķä¼ļ": 8516,
      "Ġfinan": 8517,
      "Ġresis": 8518,
      "Ġåīį": 8519,
      "Ġrecon": 8520,
      "Ġten": 8521,
      "Ġtree": 8522,
      "tly": 8523,
      "Ġbos": 8524,
      "high": 8525,
      "Ġbecomes": 8526,
      "èĳ£äºĭéķ¿": 8527,
      "çļĦéľĢæ±Ĥ": 8528,
      "æĮ¡": 8529,
      ").\\]": 8530,
      "Ġmes": 8531,
      "çī©åĵģ": 8532,
      "ä¹Łèĥ½": 8533,
      "æ£ī": 8534,
      "çº³åħ¥": 8535,
      "ä¿±ä¹Ĳéĥ¨": 8536,
      "Ġcontinuous": 8537,
      "}}-\\": 8538,
      "ä¾ĽåºĶåķĨ": 8539,
      "æľīåĬ©äºİ": 8540,
      "æĿ¥åĪ°": 8541,
      "æĸĩçĮ®": 8542,
      "Be": 8543,
      "èĢĮåľ¨": 8544,
      "Ġiso": 8545,
      "çĪĨçĤ¸": 8546,
      "tead": 8547,
      "éĢļè®¯": 8548,
      "å¯¹æ¯Ķ": 8549,
      "ĠJo": 8550,
      "äºĭå®ŀä¸Ĭ": 8551,
      "ĠGod": 8552,
      "çļĦä¸¤": 8553,
      "ĠApp": 8554,
      "Ġdifferential": 8555,
      "åģļçļĦ": 8556,
      "ç¬¬äºĶ": 8557,
      "ymmetry": 8558,
      "1000": 8559,
      "èĬ¯çīĩ": 8560,
      "cl": 8561,
      "Ġadj": 8562,
      "ç«ŀèµĽ": 8563,
      "çļĦä½¿çĶ¨": 8564,
      "éĽĨåĲĪ": 8565,
      "å¤©ä½ĵ": 8566,
      "ç²¾å½©": 8567,
      "ĠçĽ¸": 8568,
      "åħĭæĸ¯": 8569,
      "Ġansw": 8570,
      "ata": 8571,
      "åĨľæ°ĳ": 8572,
      "ĠStates": 8573,
      "tons": 8574,
      "çļĦçĶŁæ´»": 8575,
      "ä½ıå®ħ": 8576,
      "ners": 8577,
      "fts": 8578,
      "alactic": 8579,
      "ä½Ĩåľ¨": 8580,
      "æ·Ģ": 8581,
      "Au": 8582,
      "å°±åĥı": 8583,
      "spec": 8584,
      "reating": 8585,
      "Ġsay": 8586,
      "åĪ¶éĢłä¸ļ": 8587,
      "Ġpreviously": 8588,
      "Ġdimensions": 8589,
      "Ġbinary": 8590,
      "èį¯åĵģ": 8591,
      "ening": 8592,
      "ç¢ĳ": 8593,
      "Ġquestions": 8594,
      "ç±»çļĦ": 8595,
      "SL": 8596,
      "SC": 8597,
      "å°±è¦ģ": 8598,
      "ĠHamil": 8599,
      "vmatrix": 8600,
      "è´¢äº§": 8601,
      "çķĮéĿ¢": 8602,
      "æĪĲå°±": 8603,
      "Ġfluctuations": 8604,
      "ĠIs": 8605,
      "Ġexerc": 8606,
      "Ġturn": 8607,
      "Ġarbitrary": 8608,
      "âĢľ": 8609,
      "Ġcalculate": 8610,
      "è®°å¿Ĩ": 8611,
      ",(": 8612,
      "åĭĥ": 8613,
      "çļĦåĨħå®¹": 8614,
      "Ġæķ°æį®": 8615,
      "Ġinside": 8616,
      "äºĮæĺ¯": 8617,
      "æł¡æŃ£": 8618,
      "EL": 8619,
      "}\\{": 8620,
      "Ġpas": 8621,
      "Ġåıĳå±ķ": 8622,
      "Ġmeasurement": 8623,
      "Ġcompare": 8624,
      "Ġproviding": 8625,
      "Ġeigen": 8626,
      "ema": 8627,
      "Ġgeneralized": 8628,
      "Si": 8629,
      "Ġä¼ģä¸ļ": 8630,
      "ream": 8631,
      "æ°ĶåĢĻ": 8632,
      "Ġsal": 8633,
      "èĵĦ": 8634,
      "å¸Ĥæ°ĳ": 8635,
      "Ġrepresentation": 8636,
      "âĢĿ": 8637,
      "Ġpoli": 8638,
      ",...,": 8639,
      "well": 8640,
      "åĪ°è¾¾": 8641,
      "arc": 8642,
      "Li": 8643,
      "å¾Īå¿«": 8644,
      "ograph": 8645,
      "ery": 8646,
      "åĲ¹": 8647,
      "Ġinj": 8648,
      "Ġcand": 8649,
      "orpo": 8650,
      "äºĨåľ¨": 8651,
      "ä¸īç§į": 8652,
      "æĵİ": 8653,
      "ç»Ŀç¼ĺ": 8654,
      "åĬĽåº¦": 8655,
      "Ġaccele": 8656,
      "Ġ\\|\\": 8657,
      "Ne": 8658,
      "æ£®æŀĹ": 8659,
      "åħĨ": 8660,
      "Ġenhance": 8661,
      "Ġå¦Ĥæŀľ": 8662,
      "è¯´éģĵ": 8663,
      "è¿Ļä¸ĢçĤ¹": 8664,
      "æĽ´æį¢": 8665,
      "æµģçļĦ": 8666,
      "æµıè§Ī": 8667,
      ");": 8668,
      "éªĳ": 8669,
      "ĠMod": 8670,
      "å¹¶æ²¡æľī": 8671,
      "åıĸæ¶Ī": 8672,
      "Ġrelevant": 8673,
      "æıĲè®®": 8674,
      "æĻ¨": 8675,
      "Ġcaused": 8676,
      "è¸ı": 8677,
      "ç©Ĩ": 8678,
      "æµ·æ´ĭ": 8679,
      "oci": 8680,
      "Ġç³»ç»Ł": 8681,
      "ĠSU": 8682,
      "ĠPe": 8683,
      "äººæ°ĳæĶ¿åºľ": 8684,
      "Ġart": 8685,
      "Ġstri": 8686,
      "æĹ©å·²": 8687,
      "Ġbeyond": 8688,
      "}]=": 8689,
      "lastic": 8690,
      "èµ·åĪ°": 8691,
      "ä¼¤å®³": 8692,
      "çļĦéĿŀ": 8693,
      "çļĦåħ³éĶ®": 8694,
      "Ġemo": 8695,
      "çĶ¨éĢĶ": 8696,
      "åĬ©åĬĽ": 8697,
      "ä¸ĬåįĪ": 8698,
      "è¯ģå®ŀ": 8699,
      "Ġabund": 8700,
      "çªģçĦ¶": 8701,
      "åĪ°åºķ": 8702,
      "æĺ¨": 8703,
      "æ°¯": 8704,
      "Ġdetected": 8705,
      "Ġconside": 8706,
      "åĲĮæ¯Ķå¢ŀéķ¿": 8707,
      "term": 8708,
      "åīĬ": 8709,
      "Ġ25": 8710,
      "éļıæĹ¶": 8711,
      "Ġstring": 8712,
      "Ġcountry": 8713,
      "ä¸ĢåĲį": 8714,
      "formed": 8715,
      "éĢīçĶ¨": 8716,
      "ä¸Ńæľī": 8717,
      "æİ¥æĶ¶": 8718,
      "Ġcoupled": 8719,
      "ordin": 8720,
      "éŀĭ": 8721,
      "éļ§": 8722,
      "Ġlate": 8723,
      "ãĢĤ(": 8724,
      "é»ĳèī²": 8725,
      "Ġconven": 8726,
      "lash": 8727,
      "èħº": 8728,
      "Ġfra": 8729,
      "ç¤¾äº¤": 8730,
      "kj": 8731,
      "æ·ĭ": 8732,
      "warf": 8733,
      "Ġderiv": 8734,
      "çĪ¶äº²": 8735,
      "df": 8736,
      "ä¼łéĢĴ": 8737,
      "çĭĤ": 8738,
      ")}}\\": 8739,
      "Ġluminosity": 8740,
      "åħĦ": 8741,
      "}=\\{": 8742,
      "ML": 8743,
      "({": 8744,
      "ON": 8745,
      "you": 8746,
      "Ġæĸ¹æ³ķ": 8747,
      "ĠæīĢ": 8748,
      "éħ¯": 8749,
      "Ġdemonstra": 8750,
      "Ġcommunication": 8751,
      "nes": 8752,
      "çº§çļĦ": 8753,
      "åįĹäº¬": 8754,
      "å£°æĺİ": 8755,
      "arison": 8756,
      "Ġ24": 8757,
      "äººåĬĽ": 8758,
      "åŀ«": 8759,
      "Ġupon": 8760,
      "Ġado": 8761,
      "Ġbir": 8762,
      "è¡¨æ¼Ķ": 8763,
      "-|": 8764,
      "åĩºæĿ¥çļĦ": 8765,
      "ech": 8766,
      "Ġfully": 8767,
      "ä»¬çļĦ": 8768,
      "å¤§éĩıçļĦ": 8769,
      "Ġsoil": 8770,
      "çŃīäºİ": 8771,
      "Ġgoing": 8772,
      "Ġstability": 8773,
      "Ġsecurity": 8774,
      "Ġincreases": 8775,
      "*\\": 8776,
      "]^{": 8777,
      "orn": 8778,
      "æķĻç»ĥ": 8779,
      "Ġenerg": 8780,
      "cated": 8781,
      "åĽ½å¤ĸ": 8782,
      "Ġattrac": 8783,
      "æĿ¡ä»¶çļĦ": 8784,
      "EN": 8785,
      "izations": 8786,
      "æĳĦå½±": 8787,
      "æĪĸè®¸": 8788,
      "vis": 8789,
      "cripts": 8790,
      "éĩĳé¢Ŀ": 8791,
      "èĢģå¹´": 8792,
      ")+(": 8793,
      "Ġgreen": 8794,
      "come": 8795,
      "ays": 8796,
      "å¯¹æĸ¹": 8797,
      "æŃ»äº¡": 8798,
      "Ġtun": 8799,
      "æºª": 8800,
      "è´¨éĩıçļĦ": 8801,
      "å±¥è¡Į": 8802,
      "instein": 8803,
      "Ġ\\((-": 8804,
      "Ġcosmological": 8805,
      "æ¶ĪéĻ¤": 8806,
      "å¯¹ç§°æĢ§": 8807,
      "åįļçī©é¦Ĩ": 8808,
      "edic": 8809,
      "inger": 8810,
      "ç§¦": 8811,
      "Ġpractice": 8812,
      "æĲŃéħį": 8813,
      ",\\\\\\": 8814,
      ",{\\": 8815,
      "åµĮåħ¥": 8816,
      "è°¨": 8817,
      "å¦Ĩ": 8818,
      "Ġä»¥åıĬ": 8819,
      "rich": 8820,
      "èĢĮä¸į": 8821,
      "Ġexplain": 8822,
      "é¡¹çĽ®çļĦ": 8823,
      "PT": 8824,
      "å¯Ĩå°Ķé¡¿": 8825,
      "ï½ŀ": 8826,
      "Ġcool": 8827,
      "äº©": 8828,
      "Ġcame": 8829,
      "å¯¹æīĭ": 8830,
      "æĳĩ": 8831,
      "Ġscales": 8832,
      "æĳ¸": 8833,
      "ä¸Ģåľº": 8834,
      "åĬłæĭ¿": 8835,
      "radi": 8836,
      "åŃ¦çĶŁçļĦ": 8837,
      "Ġcreated": 8838,
      "ĠHis": 8839,
      "æĮĩå®ļ": 8840,
      "ators": 8841,
      "Ġspectroscop": 8842,
      "Ġresolution": 8843,
      "Ġfast": 8844,
      "åīĳ": 8845,
      "åĳ¨è¾¹": 8846,
      "å¯¹å¤ĸ": 8847,
      "ä¸ĩäºº": 8848,
      "Ġcomputer": 8849,
      "å·¥ç¨ĭå¸Ī": 8850,
      "Ġdz": 8851,
      "Ġspe": 8852,
      "Ġphoton": 8853,
      "Ġdiagn": 8854,
      "è´¯å½»": 8855,
      "åįıåĲĮ": 8856,
      "Ġimportance": 8857,
      "Ġenga": 8858,
      "åĲįåŃĹ": 8859,
      "æīĵåį°": 8860,
      "De": 8861,
      "ĠUS": 8862,
      "å¤§ä¼Ĺ": 8863,
      "ç»Ļåĩº": 8864,
      ",[": 8865,
      "covered": 8866,
      "æĹ¥èµ·": 8867,
      "å®ĥæĺ¯": 8868,
      "æķ´çĲĨ": 8869,
      "æĬ¤çĲĨ": 8870,
      "Ġeasy": 8871,
      "tering": 8872,
      "Ġversion": 8873,
      "è¾ŀ": 8874,
      "AA": 8875,
      "Ġè¿Ļä¸ª": 8876,
      "ä¸»åĬŀ": 8877,
      "æ·±åĪ»": 8878,
      "Ġadap": 8879,
      ")&": 8880,
      "æµģè¡Į": 8881,
      "çĥĺ": 8882,
      "Ġpartial": 8883,
      "é«ĺçŃī": 8884,
      "æ²³åĮĹ": 8885,
      "gy": 8886,
      "æľŁçļĦ": 8887,
      "è·Łè¸ª": 8888,
      "](": 8889,
      "è¯ŀ": 8890,
      "åħ¶æ¬¡": 8891,
      "ä¹Łè¦ģ": 8892,
      "Ġloop": 8893,
      "å¤±åİ»": 8894,
      "Ġsequence": 8895,
      "åħ»èĢģ": 8896,
      "çĤ¹åĩ»": 8897,
      "æĪĳä»¬èĢĥèĻĳ": 8898,
      "Ġcountries": 8899,
      "Ġlayer": 8900,
      "Ġstatistical": 8901,
      "æĦ¿æĦı": 8902,
      "èĶ¬èıľ": 8903,
      "ĠCou": 8904,
      "æĻ¯è§Ĥ": 8905,
      "ĠæĬĢæľ¯": 8906,
      "çĪµ": 8907,
      "Ġblock": 8908,
      "å·¥åķĨ": 8909,
      "Ġinvariant": 8910,
      "é¢Ħç®Ĺ": 8911,
      "ç½ĳåıĭ": 8912,
      "å¤¸åħĭ": 8913,
      "ĠæĽ´": 8914,
      "æĺ¾çĦ¶": 8915,
      "çĸĨ": 8916,
      "æ¼Ķåĳĺ": 8917,
      "Ġmedium": 8918,
      "Ġretur": 8919,
      "ä¹īåĬ¡": 8920,
      "åĮºåĪĨ": 8921,
      "Ġtakes": 8922,
      "åı¯èĥ½çļĦ": 8923,
      "åĳ¼åĲ¸": 8924,
      "Ġcalculated": 8925,
      "ricul": 8926,
      "Ġprimary": 8927,
      "è¿Ļé¡¹": 8928,
      "Ġattention": 8929,
      "éŁ¦": 8930,
      "Ġwaves": 8931,
      "AI": 8932,
      "æıĲç¤º": 8933,
      "ĠGL": 8934,
      "Ġsyste": 8935,
      "cade": 8936,
      "Ġexternal": 8937,
      "ç§¯ç´¯": 8938,
      "èħ¿": 8939,
      "quently": 8940,
      "æĦıæĢĿ": 8941,
      "Ġsafety": 8942,
      "æľįåĬ¡åĻ¨": 8943,
      "æģ°": 8944,
      "tanh": 8945,
      "äººæ°ĳå¸ģ": 8946,
      "Ġkind": 8947,
      "åŁ¹èĤ²": 8948,
      "Ġfish": 8949,
      "Ġmembers": 8950,
      "Ġsection": 8951,
      "Ġdepends": 8952,
      "çĽ¸åĲĮçļĦ": 8953,
      "sen": 8954,
      "room": 8955,
      "MB": 8956,
      "äººåĴĮ": 8957,
      "åĺ´": 8958,
      "åĲįåįķ": 8959,
      "Ġclasses": 8960,
      "æĸŃè£Ĥ": 8961,
      "Ġclosed": 8962,
      "labora": 8963,
      "çŁ®": 8964,
      "}.\\": 8965,
      "æł¼åħ°": 8966,
      "Ġconnected": 8967,
      "å¦¹": 8968,
      "Ġtherm": 8969,
      "åĲĮè´¨": 8970,
      "Ġgeometry": 8971,
      "Ġtherefore": 8972,
      "æĤ¦": 8973,
      "æ£Ĵ": 8974,
      "Ġdomain": 8975,
      "Bmatrix": 8976,
      "ece": 8977,
      "æŃ¤æĹ¶": 8978,
      "cong": 8979,
      "ade": 8980,
      "tus": 8981,
      "Ġax": 8982,
      "Ġanalog": 8983,
      "ç³Ĭ": 8984,
      "å°ıåŀĭ": 8985,
      "éĤ£ä¸ª": 8986,
      "çĻ½èī²": 8987,
      "èĩŃ": 8988,
      "åħ¬å®ī": 8989,
      "ä¸įçŁ¥éģĵ": 8990,
      "ä¸ĵæ³¨": 8991,
      "å®ļçĲĨ": 8992,
      "é«ĺä¸Ń": 8993,
      "Ġarchi": 8994,
      "Ġcontains": 8995,
      "Ġeasily": 8996,
      "}}^": 8997,
      "åıįåĲĳ": 8998,
      "dimensional": 8999,
      "ä¾¿åĪ©": 9000,
      "çļĦåĨħ": 9001,
      "çĽ®çļĦæĺ¯": 9002,
      "Ġano": 9003,
      "Ġmeet": 9004,
      "Ġtrue": 9005,
      "Ġcustom": 9006,
      "çŃ¾è®¢": 9007,
      "å¹¶éĿŀ": 9008,
      "jective": 9009,
      "!}": 9010,
      "|}\\": 9011,
      "ä¿¡æģ¯åĮĸ": 9012,
      "Ġhot": 9013,
      "æİ¢è®¨": 9014,
      "ĠGen": 9015,
      "Ġtens": 9016,
      "åľĨå½¢": 9017,
      "ĠGeV": 9018,
      "Ġdel": 9019,
      "ceil": 9020,
      "è½´æī¿": 9021,
      "mat": 9022,
      "Ġlonger": 9023,
      "Ġgap": 9024,
      "Ġgenerally": 9025,
      "ä¸ºåŁºç¡Ģ": 9026,
      "é¢ĸ": 9027,
      "é¢Ī": 9028,
      "))=\\": 9029,
      "rk": 9030,
      "ç¦»æķ£": 9031,
      "çĸ«èĭĹ": 9032,
      "cd": 9033,
      ")}{(": 9034,
      "çļĦåĪĨ": 9035,
      "Ġmental": 9036,
      "Ġsite": 9037,
      "Ġindustry": 9038,
      "Ġcut": 9039,
      "çĪ±æĥħ": 9040,
      "Ġtypically": 9041,
      ")}^{": 9042,
      "èī°": 9043,
      "åıĳçĹħ": 9044,
      "Ġnever": 9045,
      "Ġobser": 9046,
      "Ġconnection": 9047,
      "æ³¢æ®µ": 9048,
      "çĬ¯ç½ª": 9049,
      "Ġnote": 9050,
      "And": 9051,
      "æİ¥ä¸ĭæĿ¥": 9052,
      "Ġfraction": 9053,
      "å¸¸è§ģçļĦ": 9054,
      "åıįå¯¹": 9055,
      "Ġfinal": 9056,
      "å¸ħ": 9057,
      "ĠFrom": 9058,
      "èĢĥå¯Ł": 9059,
      "ropic": 9060,
      "Ġsymmetric": 9061,
      "ĠAll": 9062,
      "Ġconsu": 9063,
      "ç¼©æĶ¾": 9064,
      "éĩįå»º": 9065,
      "åħĪåīį": 9066,
      "ĠPa": 9067,
      "åĢĻéĢī": 9068,
      "æŁı": 9069,
      "pole": 9070,
      "dv": 9071,
      "æľįè£ħ": 9072,
      "åĪĿæŃ¥": 9073,
      "éģĵå¾·": 9074,
      "æ°´æ³¥": 9075,
      "Ġitself": 9076,
      "Ġelectronic": 9077,
      "''(": 9078,
      "å®¶å±ħ": 9079,
      "åŃ¦å®¶": 9080,
      "éļ§éģĵ": 9081,
      "Ġvol": 9082,
      "120": 9083,
      "ä¸ĵçĶ¨": 9084,
      "åħ³éĹŃ": 9085,
      "Ġtu": 9086,
      "Pr": 9087,
      "Ġåħī": 9088,
      "æĺ¯å¯¹": 9089,
      "åıĳå°Ħ": 9090,
      "ĠSci": 9091,
      "Ġprincip": 9092,
      "æĸ¤": 9093,
      "Ġvolume": 9094,
      "åĬŁèĥ½çļĦ": 9095,
      "ç»ĦæĪĲéĥ¨åĪĨ": 9096,
      "ä¹Łåı¯": 9097,
      "By": 9098,
      "ronic": 9099,
      "ç¡®å®ļæĢ§": 9100,
      "Ġåº¦": 9101,
      "Ġvariables": 9102,
      "å¼ķæĵİ": 9103,
      "Ġinsta": 9104,
      "tten": 9105,
      "çĶµæ°Ķ": 9106,
      "ç»Īç«¯": 9107,
      "èĤ¾": 9108,
      "åĽ½åĨħå¤ĸ": 9109,
      "å®ŀçİ°äºĨ": 9110,
      "åķ¡": 9111,
      "123": 9112,
      "é£ŀæľº": 9113,
      "åħ¨æĸ°": 9114,
      "Ġexisting": 9115,
      "æ¡ĳ": 9116,
      "Ġä¹ĭ": 9117,
      "})\\,": 9118,
      "Ġdigital": 9119,
      "é«ĺè¾¾": 9120,
      "Ġhouse": 9121,
      "\\,=\\,": 9122,
      "è¯¯å·®": 9123,
      "å®ŀåľ°": 9124,
      "Ġreported": 9125,
      "åĩĮ": 9126,
      "æ¯ıæ¬¡": 9127,
      "]}\\": 9128,
      "çĶŁäº§çļĦ": 9129,
      "äº§ä¸ļéĵ¾": 9130,
      "backs": 9131,
      "ĠTr": 9132,
      "çŃĶæ¡Ī": 9133,
      "åĽ¢ä½ĵ": 9134,
      "è¿Ľå±ķ": 9135,
      "tured": 9136,
      "åıĤè§Ĥ": 9137,
      "å®ĹæķĻ": 9138,
      "æ¸ĹéĢı": 9139,
      "particle": 9140,
      "Ca": 9141,
      "å©´": 9142,
      "erman": 9143,
      "å´ĩ": 9144,
      "èµļ": 9145,
      "æ°¸è¿ľ": 9146,
      "Ġchallenges": 9147,
      "magne": 9148,
      "}),\\": 9149,
      "2015": 9150,
      "Ġdirection": 9151,
      "æħĪ": 9152,
      "æĿĥçĽĬ": 9153,
      "åīįå¾Ģ": 9154,
      "tries": 9155,
      "Ġjour": 9156,
      "å¾Ĺå¤ļ": 9157,
      "Ġ\\\\&\\": 9158,
      "åľ¨ä¸Ģ": 9159,
      "ä¸»å¸Ń": 9160,
      "Vmatrix": 9161,
      "è¦ģç´ł": 9162,
      "Ġintroduc": 9163,
      "éĻķ": 9164,
      "Ġåħ·æľī": 9165,
      "å°ıè¯´": 9166,
      "ä¸įçĶ¨": 9167,
      "è§Ħå¾ĭ": 9168,
      "æ¼Ķåĩº": 9169,
      "å½ķåıĸ": 9170,
      "èľľ": 9171,
      "Ġsun": 9172,
      "è¯Ħè®º": 9173,
      "çī©ä¸ļ": 9174,
      "Ġtraditional": 9175,
      "åŁĭ": 9176,
      "^{*}\\": 9177,
      "åĬ¨åĬĽåŃ¦": 9178,
      "Ġrepresen": 9179,
      "rown": 9180,
      "æĶ¶è´¹": 9181,
      "Ġnovel": 9182,
      "æľįåĬ¡çļĦ": 9183,
      "Ġquasi": 9184,
      "Ġscaling": 9185,
      "ĠBri": 9186,
      "æŀģåĮĸ": 9187,
      "Ġ21": 9188,
      "åŃ¦åİĨ": 9189,
      "åĲĳéĩı": 9190,
      "Ġlive": 9191,
      "çŁĽ": 9192,
      "å¸¦é¢Ĩ": 9193,
      "400": 9194,
      "çļĦçĲĨè®º": 9195,
      "æŁ¥çľĭ": 9196,
      "}&{\\": 9197,
      "^{[": 9198,
      "åĩºçİ°äºĨ": 9199,
      "Ġprocedure": 9200,
      "Ġrespectively": 9201,
      "é³": 9202,
      "Ġvary": 9203,
      "Ġentropy": 9204,
      "çĩķ": 9205,
      "æłĳèĦĤ": 9206,
      "Ġface": 9207,
      "Ġonce": 9208,
      "æľªæĿ¥çļĦ": 9209,
      "Ġrestric": 9210,
      "æ¯įäº²": 9211,
      "æľīåĪ©äºİ": 9212,
      "ĠMoreover": 9213,
      "æī¿è¯º": 9214,
      "æ±īå¯Ĩå°Ķé¡¿": 9215,
      "aling": 9216,
      "Ġpure": 9217,
      "Ġconjec": 9218,
      "æ©¡èĥ¶": 9219,
      "Ġneutrino": 9220,
      "Su": 9221,
      "çº¿è·¯": 9222,
      "åıĤæķ°çļĦ": 9223,
      "æĿ¥äºĨ": 9224,
      "åĮĹéĥ¨": 9225,
      "ä¼ĳéĹ²": 9226,
      "One": 9227,
      "åĲįä¸º": 9228,
      "Ġbuild": 9229,
      "Ġpatterns": 9230,
      "çŃīäºº": 9231,
      "ĠéĹ®é¢ĺ": 9232,
      "Ġbin": 9233,
      "æīĢå¾Ĺ": 9234,
      "è¯ļä¿¡": 9235,
      "len": 9236,
      "~~~": 9237,
      "åľ°ä¸ĭ": 9238,
      "å®ĥä»¬çļĦ": 9239,
      "çľĭçľĭ": 9240,
      "ĠMan": 9241,
      "çĶŁåŃĺ": 9242,
      "Ġparticip": 9243,
      "æ¯ķä¸ļçĶŁ": 9244,
      "'+": 9245,
      "è¡¨å±Ĥ": 9246,
      "å¯º": 9247,
      "ä¸įéľĢè¦ģ": 9248,
      "éļĻ": 9249,
      "\\}}": 9250,
      "ĠFermi": 9251,
      "formal": 9252,
      "æĨ": 9253,
      "å®¶æĹı": 9254,
      "éĶ»": 9255,
      "ä¸ºæĤ¨": 9256,
      "è¾£": 9257,
      "åıĮéĩį": 9258,
      "Ġgreater": 9259,
      "from": 9260,
      "åĵįåºĶ": 9261,
      "æĶ¾å¼ĥ": 9262,
      "åħ¨åĬĽ": 9263,
      "çļĦå½¢å¼ı": 9264,
      "ĠHealth": 9265,
      "Ar": 9266,
      "ĠæĹ¶éĹ´": 9267,
      "Cu": 9268,
      "Ġoptim": 9269,
      "ç´§å¼ł": 9270,
      "\"\\": 9271,
      "tating": 9272,
      "æĪĪ": 9273,
      "ä¸¤å¹´": 9274,
      "æī§æ³ķ": 9275,
      "Ġ&=\\": 9276,
      "éĩıåĮĸ": 9277,
      "ç¦ģæŃ¢": 9278,
      "),}\\": 9279,
      "Ġsix": 9280,
      "rating": 9281,
      "Ġdetailed": 9282,
      "Ġusers": 9283,
      "å¯¹æŃ¤": 9284,
      "[(": 9285,
      "Ġæĺ¾ç¤º": 9286,
      "ä¸īåĪĨ": 9287,
      "Ġparticularly": 9288,
      "Ġinstr": 9289,
      "Ġcold": 9290,
      "Ġexper": 9291,
      "ction": 9292,
      "Se": 9293,
      "çļĦå¤ĸ": 9294,
      "è®¤å®ļ": 9295,
      "åĩºçĶŁ": 9296,
      "å®Ŀå®Ŀ": 9297,
      "å¥Ķ": 9298,
      "lescope": 9299,
      "ĠNational": 9300,
      "arg": 9301,
      "care": 9302,
      "åĪĩåī²": 9303,
      "{~": 9304,
      "å¤ļé¡¹": 9305,
      "è°ĥçłĶ": 9306,
      "æĤ²": 9307,
      "åŁºå±Ĥ": 9308,
      "Ġsleep": 9309,
      "ending": 9310,
      "å®¹éĩı": 9311,
      "ç¬¬äºĮä¸ª": 9312,
      "ãĢĤãĢĬ": 9313,
      "Ġcenter": 9314,
      "Ġexam": 9315,
      "éĤ£éĩĮ": 9316,
      "BC": 9317,
      "èĤĥ": 9318,
      "æŀª": 9319,
      "å»·": 9320,
      "pen": 9321,
      "æĮĩæĮ¥": 9322,
      "Ġåıĳçİ°": 9323,
      "OR": 9324,
      "this": 9325,
      "æľīåĵªäºĽ": 9326,
      "Ġlives": 9327,
      "ç¥¥": 9328,
      "æĹ¨åľ¨": 9329,
      "æĺĤ": 9330,
      "å®ŀçĶ¨": 9331,
      "Ġensu": 9332,
      "Ġcauses": 9333,
      "éĶĲ": 9334,
      "æ¢¦æĥ³": 9335,
      "ians": 9336,
      "ä¼ļçļĦ": 9337,
      "Ġmillion": 9338,
      "ç»Īäºİ": 9339,
      "itch": 9340,
      "èĮ¨": 9341,
      "Ġconcer": 9342,
      "licity": 9343,
      "hic": 9344,
      "æłª": 9345,
      "æĪĳä»¬éĢļè¿ĩ": 9346,
      "éĥģ": 9347,
      "Ġsimulation": 9348,
      "Ġcompe": 9349,
      "Ġconcept": 9350,
      "æĹłäºº": 9351,
      "å½±çīĩ": 9352,
      "çĻ½çĻľé£İçļĦ": 9353,
      "Ġæ³ķ": 9354,
      "Ġyet": 9355,
      "ciple": 9356,
      "Ġequal": 9357,
      "Ġatm": 9358,
      "mented": 9359,
      "è®¢åįķ": 9360,
      "Ġå¤ĸ": 9361,
      "mogeneous": 9362,
      "å¤±è´¥": 9363,
      "åıĳæĺİ": 9364,
      "çŁ¥è¯Ĩäº§æĿĥ": 9365,
      "thesis": 9366,
      "]+": 9367,
      "dow": 9368,
      "ä¸įåıĺ": 9369,
      "åĽ¾è¡¨": 9370,
      "UV": 9371,
      "æŁ´": 9372,
      "Ġtend": 9373,
      "åĽŀçŃĶ": 9374,
      "Ġrise": 9375,
      "æ¶ĪèĢĹ": 9376,
      "Ġaffect": 9377,
      "éħ¶": 9378,
      "),\\]": 9379,
      "ä¸įèī¯": 9380,
      "å®īåħ¨æĢ§": 9381,
      "åĽĬ": 9382,
      "è¿Ľè¡ĮçļĦ": 9383,
      "çĽ´å¾Ħ": 9384,
      "Ġminimal": 9385,
      "Ġcontrast": 9386,
      "èĭ¹": 9387,
      "ç¾İçļĦ": 9388,
      "}|_{": 9389,
      "iy": 9390,
      "ä¹Łè®¸": 9391,
      "çĹħäºº": 9392,
      "longrightarrow": 9393,
      "Ġflav": 9394,
      "ole": 9395,
      "å®ŀä½ĵ": 9396,
      "æ°´çļĦ": 9397,
      "mselves": 9398,
      "}\"": 9399,
      "åĴĸåķ¡": 9400,
      "ä¸ºæŃ¢": 9401,
      "å»¶éķ¿": 9402,
      "èĳĹåĲį": 9403,
      "Ġcontribution": 9404,
      "}{{\\": 9405,
      "è¿ĺä¼ļ": 9406,
      "notin": 9407,
      "åįĹéĥ¨": 9408,
      "å¸¦åĬ¨": 9409,
      "çłĶç©¶çĶŁ": 9410,
      ")}\\\\": 9411,
      "Ġ\\{\\": 9412,
      "æįĨ": 9413,
      "ĠAfter": 9414,
      "æĬ«": 9415,
      "å®īå¾½": 9416,
      "Ġhead": 9417,
      "æĪĳä»¬ä»İ": 9418,
      "Ġmeta": 9419,
      "Ġsurvey": 9420,
      "air": 9421,
      "phys": 9422,
      "ç¡¬ä»¶": 9423,
      "Ġenergies": 9424,
      "Ġwo": 9425,
      "Ġpay": 9426,
      "Ġidentified": 9427,
      "ç«ĭæĸ¹": 9428,
      "éĻ¢éķ¿": 9429,
      "Ġdeath": 9430,
      "ï¼ĽãĢģ": 9431,
      "mand": 9432,
      "ç»ĻåĩºäºĨ": 9433,
      "Ġinteresting": 9434,
      "Ġindex": 9435,
      "åłµ": 9436,
      "åħ¨çľģ": 9437,
      "ĠUn": 9438,
      "æĹłè®ºæĺ¯": 9439,
      "Ġ\\(\\{{\\": 9440,
      "ddot": 9441,
      ",+": 9442,
      "Ġpolarization": 9443,
      "ä¸ĬäºĨ": 9444,
      "pite": 9445,
      "æ¡£æ¡Ī": 9446,
      "DA": 9447,
      "Ġmodern": 9448,
      "å¾¡": 9449,
      "å·¥ä½ľä¸Ń": 9450,
      "Ġoriginal": 9451,
      "Ġissue": 9452,
      "Ġdamage": 9453,
      "isted": 9454,
      "æ°ĽåĽ´": 9455,
      "çłĶç©¶éĻ¢": 9456,
      "ä¿Ŀåħ»": 9457,
      "æłĩçŃ¾": 9458,
      "ä¿®å¤į": 9459,
      "èĪŀåı°": 9460,
      "pq": 9461,
      "ä¸įå¥½": 9462,
      "éļĶç¦»": 9463,
      "è®²è§£": 9464,
      "ials": 9465,
      "Ġur": 9466,
      "åĢ¡": 9467,
      "å¸¦çĿĢ": 9468,
      "åĲ¸éĻĦ": 9469,
      "Ġmoney": 9470,
      "åı¯ä»¥çĶ¨": 9471,
      "tian": 9472,
      "alog": 9473,
      "å¤Ħç½ļ": 9474,
      "sharp": 9475,
      "çªĦ": 9476,
      "Ġrob": 9477,
      "gence": 9478,
      "Ġangular": 9479,
      "Ġinduced": 9480,
      "å¤§èµĽ": 9481,
      "å¼Ģåħ³": 9482,
      "è¿Ļä¸ªéĹ®é¢ĺ": 9483,
      "å²ģçļĦ": 9484,
      ").\\": 9485,
      "Ġwit": 9486,
      "æĺ¯æľī": 9487,
      "æĻºèĥ½åĮĸ": 9488,
      "æĽ´å¥½åľ°": 9489,
      "izes": 9490,
      "Ġè¿Ļç§į": 9491,
      "}\\|\\": 9492,
      "åĲĪæ³ķ": 9493,
      "è¥¿éĥ¨": 9494,
      "è¡Ĺéģĵ": 9495,
      "éĶĤ": 9496,
      "èĩ³äºİ": 9497,
      "Ġbac": 9498,
      "ä¿¡ä»»": 9499,
      "åħĥä»¶": 9500,
      "Ġdecre": 9501,
      "Ġä¸¤": 9502,
      "éģ¥": 9503,
      "çļĦæľįåĬ¡": 9504,
      "Ġsoftware": 9505,
      "åŁºç¡Ģè®¾æĸ½": 9506,
      "çī©æĸĻ": 9507,
      "abilities": 9508,
      "å¸ĮèħĬ": 9509,
      "ju": 9510,
      "è®¾è®¡çļĦ": 9511,
      "æĥľ": 9512,
      "çķª": 9513,
      "æĥ³åĪ°": 9514,
      "èĢķ": 9515,
      "çħ§æĺİ": 9516,
      "åŁºæľ¬ä¸Ĭ": 9517,
      "ĠHamiltonian": 9518,
      "Ġfriend": 9519,
      "æ¤ħ": 9520,
      "style": 9521,
      "çĪ±çļĦ": 9522,
      "{(-": 9523,
      "åĬĽåĴĮ": 9524,
      "ĠQCD": 9525,
      "åĳ½ä»¤": 9526,
      "]_": 9527,
      "è¿Ļç±»": 9528,
      "ula": 9529,
      "Ġlack": 9530,
      "æ¶Īæ¯Ĵ": 9531,
      "arents": 9532,
      "mitted": 9533,
      "ä¸Ģå¤©": 9534,
      "Ġdisper": 9535,
      "Ġanisot": 9536,
      "Ġservice": 9537,
      "Ġcosmic": 9538,
      "ater": 9539,
      "åĪł": 9540,
      "æįī": 9541,
      "å¹³è¡Į": 9542,
      "Ġrotation": 9543,
      "Ġpredictions": 9544,
      "èľĤ": 9545,
      "__": 9546,
      "èħ°": 9547,
      "point": 9548,
      "æµĭéĩıçļĦ": 9549,
      "éĤ£æł·": 9550,
      "Ġgoal": 9551,
      "æĺŁç³»çļĦ": 9552,
      "å¤Ħç½®": 9553,
      "æĬĢå·§": 9554,
      "Ġban": 9555,
      "çĽ¸ç»ĵåĲĪ": 9556,
      "kets": 9557,
      "éħįå¤ĩ": 9558,
      ";\\;\\;": 9559,
      "ä¸ºæŃ¤": 9560,
      "åĪ©çİĩ": 9561,
      "æ¹ĸåĮĹ": 9562,
      "Ġcorrelations": 9563,
      "æĪĲåĥı": 9564,
      "ç»Ħç¾¤": 9565,
      "å³°åĢ¼": 9566,
      "Ġfav": 9567,
      "ä¹ĭä¸ĭ": 9568,
      "å±ĤéĿ¢": 9569,
      "ancy": 9570,
      "inal": 9571,
      "åĩŃåĢŁ": 9572,
      "åĪĩå®ŀ": 9573,
      "åį°è±¡": 9574,
      "Ġcompute": 9575,
      "Ġlitera": 9576,
      "electric": 9577,
      "ecause": 9578,
      "æĶ¶åĪ°": 9579,
      "å¹¿æ³ĽçļĦ": 9580,
      "æ¡¶": 9581,
      "æľīä»Ģä¹Ī": 9582,
      "çĽĨ": 9583,
      "})-\\": 9584,
      "è´§çī©": 9585,
      "æĬ¼": 9586,
      "yr": 9587,
      "æľīåħ³çļĦ": 9588,
      "Ġmeaning": 9589,
      "åģľè½¦": 9590,
      "Ġlimited": 9591,
      "å°ıåŃ¦": 9592,
      "è¿ĺèĥ½": 9593,
      "Ġideal": 9594,
      "ä¸¢": 9595,
      "è¿ĩçļĦ": 9596,
      "çĸ¼": 9597,
      "MM": 9598,
      "å¿į": 9599,
      "çĮľ": 9600,
      "hal": 9601,
      "éĶ¥": 9602,
      "æĺłå°Ħ": 9603,
      "Ġgeneration": 9604,
      "lers": 9605,
      "Ġ}{\\": 9606,
      "Ġrich": 9607,
      "Ġfluid": 9608,
      "EX": 9609,
      "metric": 9610,
      "ĠGe": 9611,
      "åĬ£": 9612,
      "çĿĽ": 9613,
      "ditionally": 9614,
      "çĩĥçĥ§": 9615,
      "èĬ³": 9616,
      "èĭ¹æŀľ": 9617,
      "Ġ50": 9618,
      "ĠStu": 9619,
      "Ġcandida": 9620,
      "éĢłåŀĭ": 9621,
      "è¿ĶåĽŀ": 9622,
      "ords": 9623,
      "Ġbri": 9624,
      "Ġsuggests": 9625,
      "Ġperfect": 9626,
      "èĥ¸": 9627,
      "æĥ³è±¡": 9628,
      "ç»ĦæĪĲçļĦ": 9629,
      "isation": 9630,
      "ç¿¼": 9631,
      "çľģçº§": 9632,
      "vature": 9633,
      "Ġ100": 9634,
      "utral": 9635,
      "Ġpercent": 9636,
      ")\\\\&=": 9637,
      "æĭ¨": 9638,
      "å¹¶å°Ĩ": 9639,
      "åĲĦèĩª": 9640,
      "é¼ł": 9641,
      "è®¼": 9642,
      "ai": 9643,
      "lia": 9644,
      "dens": 9645,
      ")~": 9646,
      "ijk": 9647,
      "å¥ĸåĬ±": 9648,
      "æĹº": 9649,
      "ĠAfric": 9650,
      "Ġinvolves": 9651,
      "nged": 9652,
[...]
